2
00000000 2 1340 1600
00000000 00000000
00000004 00002000
00000008 00006000
0000000c 00004000
00000010 00005000
00000014 00005100
00000018 00005200
0000001c 00000000
00000020 00000000
00000024 00000000
00000028 00000000
0000002c 000a000a
00000030 00100003
00000034 01010101
00000038 fffffffd
0000003c 00000001
00000040 00000000
00000044 00003000
00000048 00000000
0000004c 00000000
00000050 00000000
00000054 00000000
00000058 00000000
0000005c 00000000
00000060 00000000
00000064 00000000
00000068 00000000
0000006c 00000000
00000070 00000000
00000074 00000000
00000078 00000000
0000007c 00000000
00000080 00000001
00000084 00006000
00000088 0000e000
0000008c 00008000
00000090 00009000
00000094 0000a000
00000098 0000b000
0000009c 0000c000
000000a0 0000d000
000000a4 0000d100
000000a8 0000d200
000000ac 00080008
000000b0 00100010
000000b4 01010101
000000b8 00000001
000000bc 00000002
000000c0 00000003
000000c4 30003000
000000c8 00000000
000000cc 00000000
000000d0 00000000
000000d4 00000000
000000d8 00000000
000000dc 00000000
000000e0 00000000
000000e4 00000000
000000e8 00000000
000000ec 00000000
000000f0 00000000
000000f4 00000000
000000f8 00000000
000000fc 00000000
00002000 fffffffd
00002004 fffffffd
00002008 fffffffd
0000200c fffffffd
00002010 fffffffd
00002014 fffffffd
00002018 fffffffd
0000201c fffffffd
00002020 fffffffd
00002024 fffffffd
00002028 fffffffd
0000202c fffffffd
00002030 fffffffd
00002034 fffffffd
00002038 fffffffd
0000203c fffffffd
00002040 fffffffd
00002044 fffffffd
00002048 fffffffd
0000204c fffffffd
00002050 fffffffd
00002054 fffffffd
00002058 fffffffd
0000205c fffffffd
00002060 fffffffd
00002064 fffffffd
00002068 fffffffd
0000206c fffffffd
00002070 fffffffd
00002074 fffffffd
00002078 fffffffd
0000207c fffffffd
00002080 fffffffd
00002084 ffffffee
00002088 ffffffce
0000208c ffffffc1
00002090 ffffffd0
00002094 ffffffea
00002098 ffffffd9
0000209c 00000021
000020a0 ffffffe0
000020a4 ffffffe5
000020a8 00000009
000020ac ffffffc0
000020b0 ffffffc3
000020b4 0000001a
000020b8 fffffff1
000020bc ffffffce
000020c0 ffffffe3
000020c4 ffffffe4
000020c8 00000035
000020cc fffffffc
000020d0 00000028
000020d4 fffffffc
000020d8 fffffff1
000020dc 00000003
000020e0 ffffffff
000020e4 fffffffd
000020e8 fffffffd
000020ec fffffffd
000020f0 fffffffd
000020f4 fffffffd
000020f8 fffffffd
000020fc 00000035
00002100 0000001d
00002104 00000030
00002108 00000015
0000210c 0000002c
00002110 ffffffea
00002114 ffffffef
00002118 00000018
0000211c fffffffb
00002120 00000015
00002124 fffffffc
00002128 fffffff8
0000212c 00000014
00002130 ffffffdb
00002134 ffffffc8
00002138 0000001f
0000213c 0000002f
00002140 ffffffc1
00002144 0000002b
00002148 ffffffe4
0000214c ffffffcb
00002150 0000000b
00002154 00000028
00002158 0000003b
0000215c fffffffd
00002160 fffffffd
00002164 fffffffd
00002168 fffffffd
0000216c fffffffd
00002170 fffffffd
00002174 ffffffde
00002178 00000010
0000217c ffffffee
00002180 ffffffc7
00002184 0000002b
00002188 ffffffc9
0000218c ffffffee
00002190 0000003e
00002194 ffffffcd
00002198 0000000d
0000219c fffffff4
000021a0 ffffffee
000021a4 00000016
000021a8 0000000f
000021ac 0000000a
000021b0 fffffffb
000021b4 ffffffd5
000021b8 ffffffe8
000021bc 0000002d
000021c0 00000008
000021c4 00000001
000021c8 0000003c
000021cc ffffffc5
000021d0 0000002a
000021d4 fffffffd
000021d8 fffffffd
000021dc fffffffd
000021e0 fffffffd
000021e4 fffffffd
000021e8 fffffffd
000021ec 00000003
000021f0 00000030
000021f4 ffffffd3
000021f8 ffffffc1
000021fc ffffffe1
00002200 ffffffd6
00002204 00000033
00002208 00000012
0000220c 00000012
00002210 00000016
00002214 ffffffcb
00002218 ffffffe9
0000221c fffffff4
00002220 ffffffd7
00002224 ffffffde
00002228 00000035
0000222c 00000006
00002230 fffffff0
00002234 00000015
00002238 ffffffe7
0000223c ffffffcf
00002240 00000014
00002244 0000000c
00002248 0000001b
0000224c fffffffd
00002250 fffffffd
00002254 fffffffd
00002258 fffffffd
0000225c fffffffd
00002260 fffffffd
00002264 00000029
00002268 00000027
0000226c ffffffe4
00002270 ffffffc2
00002274 00000032
00002278 ffffffd8
0000227c 00000003
00002280 ffffffcf
00002284 ffffffc9
00002288 ffffffe9
0000228c fffffffd
00002290 00000026
00002294 00000012
00002298 0000001b
0000229c 00000009
000022a0 00000038
000022a4 ffffffe4
000022a8 00000013
000022ac 0000002b
000022b0 fffffff7
000022b4 ffffffd0
000022b8 ffffffde
000022bc 00000026
000022c0 0000002d
000022c4 fffffffd
000022c8 fffffffd
000022cc fffffffd
000022d0 fffffffd
000022d4 fffffffd
000022d8 fffffffd
000022dc ffffffd9
000022e0 0000001d
000022e4 00000018
000022e8 ffffffcd
000022ec 00000014
000022f0 00000000
000022f4 0000001d
000022f8 fffffff7
000022fc 0000002d
00002300 ffffffe8
00002304 00000037
00002308 fffffff4
0000230c ffffffcf
00002310 0000003f
00002314 0000003e
00002318 0000000a
0000231c 00000007
00002320 ffffffdd
00002324 00000039
00002328 0000001a
0000232c 00000022
00002330 00000034
00002334 ffffffea
00002338 0000000e
0000233c fffffffd
00002340 fffffffd
00002344 fffffffd
00002348 fffffffd
0000234c fffffffd
00002350 fffffffd
00002354 ffffffec
00002358 0000000d
0000235c fffffff5
00002360 0000000f
00002364 00000019
00002368 ffffffc7
0000236c 0000002b
00002370 0000002c
00002374 00000018
00002378 00000033
0000237c 0000000d
00002380 00000013
00002384 fffffff9
00002388 ffffffc0
0000238c ffffffcc
00002390 0000000b
00002394 0000000c
00002398 00000016
0000239c ffffffc2
000023a0 00000028
000023a4 ffffffc7
000023a8 ffffffec
000023ac 00000011
000023b0 ffffffd5
000023b4 fffffffd
000023b8 fffffffd
000023bc fffffffd
000023c0 fffffffd
000023c4 fffffffd
000023c8 fffffffd
000023cc fffffffc
000023d0 00000020
000023d4 00000028
000023d8 ffffffe3
000023dc ffffffdb
000023e0 ffffffe2
000023e4 00000011
000023e8 0000000b
000023ec ffffffee
000023f0 fffffff2
000023f4 ffffffda
000023f8 00000031
000023fc ffffffe0
00002400 00000034
00002404 ffffffc2
00002408 0000000b
0000240c fffffff6
00002410 ffffffdb
00002414 ffffffd9
00002418 0000003c
0000241c 00000029
00002420 fffffff8
00002424 00000032
00002428 ffffffd1
0000242c fffffffd
00002430 fffffffd
00002434 fffffffd
00002438 fffffffd
0000243c fffffffd
00002440 fffffffd
00002444 fffffffd
00002448 fffffffd
0000244c fffffffd
00002450 fffffffd
00002454 fffffffd
00002458 fffffffd
0000245c fffffffd
00002460 fffffffd
00002464 fffffffd
00002468 fffffffd
0000246c fffffffd
00002470 fffffffd
00002474 fffffffd
00002478 fffffffd
0000247c fffffffd
00002480 fffffffd
00002484 fffffffd
00002488 fffffffd
0000248c fffffffd
00002490 fffffffd
00002494 fffffffd
00002498 fffffffd
0000249c fffffffd
000024a0 fffffffd
000024a4 fffffffd
000024a8 fffffffd
000024ac fffffffd
00004000 ffffffff
00004004 ffffffff
00004008 00000008
0000400c 00000007
00004010 00000004
00004014 fffffffb
00004018 00000001
0000401c 00000007
00004020 fffffffe
00004024 00000005
00004028 00000001
0000402c 00000008
00004030 ffffffff
00004034 00000005
00004038 ffffffff
0000403c fffffffc
00004040 fffffffe
00004044 00000002
00004048 fffffff9
0000404c fffffffa
00004050 fffffffc
00004054 fffffffb
00004058 00000006
0000405c ffffffff
00004060 00000002
00004064 00000004
00004068 00000006
0000406c 00000004
00004070 fffffffb
00004074 00000000
00004078 00000000
0000407c ffffffff
00004080 fffffffb
00004084 fffffffd
00004088 00000006
0000408c 00000008
00004090 fffffffb
00004094 00000005
00004098 00000000
0000409c ffffffff
000040a0 00000007
000040a4 fffffffa
000040a8 ffffffff
000040ac fffffff9
000040b0 00000002
000040b4 fffffffb
000040b8 fffffffc
000040bc fffffffc
000040c0 00000002
000040c4 00000001
000040c8 00000007
000040cc 00000006
000040d0 fffffffd
000040d4 fffffffe
000040d8 ffffffff
000040dc 00000002
000040e0 fffffffb
000040e4 ffffffff
000040e8 fffffff8
000040ec fffffff8
000040f0 ffffffff
000040f4 00000006
000040f8 fffffffc
000040fc fffffffa
00004100 00000007
00004104 fffffffb
00004108 00000005
0000410c 00000003
00004110 ffffffff
00004114 fffffff8
00004118 00000004
0000411c 00000006
00004120 00000006
00004124 fffffff8
00004128 00000007
0000412c 00000005
00004130 fffffffa
00004134 00000001
00004138 fffffffd
0000413c fffffffa
00004140 fffffffc
00004144 00000001
00004148 fffffffd
0000414c 00000004
00004150 fffffffa
00004154 00000002
00004158 00000001
0000415c 00000003
00004160 00000000
00004164 00000008
00004168 00000001
0000416c 00000004
00004170 fffffffc
00004174 00000007
00004178 00000001
0000417c fffffffe
00004180 fffffff9
00004184 fffffffb
00004188 00000007
0000418c 00000001
00004190 fffffffa
00004194 fffffff9
00004198 fffffffb
0000419c fffffffb
000041a0 fffffffc
000041a4 fffffffe
000041a8 fffffff9
000041ac 00000004
000041b0 fffffff8
000041b4 fffffffb
000041b8 00000008
000041bc 00000005
000041c0 fffffff8
000041c4 00000000
000041c8 00000008
000041cc fffffff8
000041d0 fffffffc
000041d4 00000000
000041d8 ffffffff
000041dc fffffffc
000041e0 fffffff8
000041e4 fffffff8
000041e8 ffffffff
000041ec ffffffff
000041f0 fffffffe
000041f4 00000006
000041f8 00000006
000041fc 00000000
00004200 00000004
00004204 00000008
00004208 fffffff9
0000420c 00000004
00004210 00000002
00004214 fffffff9
00004218 fffffff8
0000421c 00000000
00004220 fffffff9
00004224 00000003
00004228 fffffff8
0000422c 00000003
00004230 00000002
00004234 fffffffe
00004238 ffffffff
0000423c 00000002
00004240 fffffffd
00004244 fffffffd
00004248 fffffff9
0000424c 00000007
00004250 fffffffa
00004254 fffffffe
00004258 fffffffb
0000425c 00000008
00004260 fffffffd
00004264 ffffffff
00004268 fffffffa
0000426c 00000001
00004270 00000005
00004274 fffffff9
00004278 fffffffe
0000427c fffffffe
00004280 00000007
00004284 00000004
00004288 00000006
0000428c 00000000
00004290 00000008
00004294 00000006
00004298 00000008
0000429c 00000008
000042a0 00000001
000042a4 fffffffb
000042a8 00000000
000042ac ffffffff
000042b0 00000003
000042b4 fffffffe
000042b8 fffffffe
000042bc 00000007
000042c0 ffffffff
000042c4 00000005
000042c8 fffffff9
000042cc 00000006
000042d0 00000006
000042d4 fffffffd
000042d8 00000006
000042dc fffffffe
000042e0 00000000
000042e4 00000007
000042e8 00000008
000042ec 00000007
000042f0 fffffff8
000042f4 00000005
000042f8 00000005
000042fc fffffff9
00004300 ffffffff
00004304 00000006
00004308 fffffffd
0000430c 00000006
00004310 00000005
00004314 00000007
00004318 00000004
0000431c 00000006
00004320 fffffffa
00004324 00000000
00004328 fffffffb
0000432c ffffffff
00004330 00000006
00004334 00000000
00004338 fffffffd
0000433c 00000002
00004340 fffffff8
00004344 ffffffff
00004348 00000001
0000434c 00000001
00004350 00000007
00004354 00000005
00004358 fffffffe
0000435c 00000002
00004360 00000007
00004364 ffffffff
00004368 ffffffff
0000436c fffffffe
00004370 00000003
00004374 ffffffff
00004378 00000002
0000437c 00000004
00004380 00000004
00004384 00000005
00004388 fffffffb
0000438c 00000003
00004390 ffffffff
00004394 fffffffb
00004398 ffffffff
0000439c 00000005
000043a0 fffffffd
000043a4 00000006
000043a8 fffffffc
000043ac 00000001
000043b0 00000006
000043b4 00000008
000043b8 ffffffff
000043bc ffffffff
000043c0 00000003
000043c4 fffffffa
000043c8 00000004
000043cc 00000006
000043d0 00000005
000043d4 00000006
000043d8 00000002
000043dc fffffff9
000043e0 00000008
000043e4 fffffff8
000043e8 00000001
000043ec 00000006
000043f0 fffffffb
000043f4 00000002
000043f8 00000000
000043fc fffffffc
00004400 00000002
00004404 00000008
00004408 fffffffa
0000440c 00000004
00004410 00000003
00004414 00000001
00004418 00000003
0000441c 00000004
00004420 fffffff8
00004424 00000004
00004428 00000006
0000442c fffffffe
00004430 00000007
00004434 00000002
00004438 00000003
0000443c fffffff8
00004440 fffffff9
00004444 fffffffb
00004448 fffffff8
0000444c 00000007
00004450 00000004
00004454 00000005
00004458 00000008
0000445c 00000003
00004460 00000007
00004464 00000008
00004468 00000000
0000446c 00000001
00004470 fffffff8
00004474 fffffffe
00004478 fffffffe
0000447c 00000001
00004480 fffffffa
00004484 fffffffd
00004488 00000003
0000448c 00000001
00004490 fffffff8
00004494 00000003
00004498 00000007
0000449c fffffffe
000044a0 00000000
000044a4 00000001
000044a8 fffffff8
000044ac ffffffff
000044b0 fffffffe
000044b4 00000001
000044b8 00000003
000044bc 00000002
000044c0 fffffff8
000044c4 00000004
000044c8 fffffffe
000044cc ffffffff
000044d0 fffffffc
000044d4 ffffffff
000044d8 fffffffa
000044dc 00000005
000044e0 00000000
000044e4 fffffff9
000044e8 fffffffa
000044ec 00000007
000044f0 fffffffc
000044f4 00000005
000044f8 00000002
000044fc fffffffb
00004500 fffffff8
00004504 fffffff9
00004508 fffffffd
0000450c 00000002
00004510 00000002
00004514 fffffffc
00004518 00000007
0000451c fffffffc
00004520 00000000
00004524 fffffff9
00004528 ffffffff
0000452c 00000003
00004530 fffffffe
00004534 00000004
00004538 ffffffff
0000453c 00000007
00004540 00000002
00004544 00000000
00004548 00000003
0000454c 00000001
00004550 00000000
00004554 00000003
00004558 00000003
0000455c 00000007
00004560 00000000
00004564 fffffffa
00004568 fffffffb
0000456c 00000002
00004570 00000000
00004574 00000005
00004578 00000006
0000457c 00000006
00004580 fffffff9
00004584 fffffffb
00004588 00000001
0000458c fffffff9
00004590 00000004
00004594 ffffffff
00004598 fffffffa
0000459c 00000002
000045a0 00000000
000045a4 fffffffb
000045a8 fffffff9
000045ac fffffff9
000045b0 fffffffc
000045b4 00000002
000045b8 00000007
000045bc 00000002
000045c0 fffffffe
000045c4 00000007
000045c8 00000004
000045cc fffffffc
000045d0 00000004
000045d4 00000008
000045d8 fffffffa
000045dc 00000007
000045e0 00000003
000045e4 fffffff8
000045e8 fffffffb
000045ec fffffffe
000045f0 00000006
000045f4 fffffff9
000045f8 00000008
000045fc fffffffd
00004600 00000006
00004604 fffffffc
00004608 fffffffe
0000460c 00000001
00004610 00000008
00004614 fffffffe
00004618 00000005
0000461c 00000007
00004620 00000000
00004624 00000002
00004628 00000004
0000462c 00000007
00004630 fffffffa
00004634 ffffffff
00004638 00000005
0000463c ffffffff
00004640 ffffffff
00004644 fffffffa
00004648 fffffffe
0000464c fffffffc
00004650 00000002
00004654 fffffffe
00004658 00000003
0000465c fffffffe
00004660 00000007
00004664 00000008
00004668 00000002
0000466c 00000008
00004670 fffffffb
00004674 00000006
00004678 00000004
0000467c fffffffb
00004680 00000002
00004684 fffffff9
00004688 00000005
0000468c 00000006
00004690 fffffff9
00004694 fffffffc
00004698 fffffffe
0000469c 00000002
000046a0 fffffffd
000046a4 00000008
000046a8 00000005
000046ac 00000002
000046b0 fffffff9
000046b4 fffffffb
000046b8 fffffffb
000046bc fffffffb
00005000 00000530
00005004 ffffff33
00005008 000000c6
0000500c fffffbf4
00005010 fffffb60
00005014 000001ea
00005018 000006f2
0000501c 000005b8
00005020 fffffd79
00005024 000002ac
00005028 fffffc03
0000502c 000003b8
00005030 fffff955
00005034 fffffe39
00005038 0000007c
0000503c 00000248
00005100 2991b0b7
00005104 2b6bebf0
00005108 3edc0b4f
0000510c 38880ed5
00005110 37103e2b
00005114 2a67331f
00005118 3906755d
0000511c 2cb92539
00005120 2a089d87
00005124 31f025ca
00005128 1677c0ca
0000512c 393316ec
00005130 344790c7
00005134 13a42673
00005138 1572a1da
0000513c 3f1a42c8
00005200 00000006
00005204 00000007
00005208 00000009
0000520c 00000009
00005210 00000006
00005214 00000006
00005218 00000005
0000521c 00000006
00005220 00000005
00005224 00000008
00005228 00000005
0000522c 00000005
00005230 00000009
00005234 00000009
00005238 00000007
0000523c 00000008
00008000 fffffff9
00008004 fffffffa
00008008 fffffff8
0000800c 00000006
00008010 ffffffff
00008014 00000004
00008018 00000004
0000801c 00000004
00008020 fffffffb
00008024 00000007
00008028 fffffffa
0000802c 00000001
00008030 00000005
00008034 00000003
00008038 00000007
0000803c 00000003
00008040 fffffffd
00008044 00000007
00008048 00000003
0000804c 00000001
00008050 00000008
00008054 00000000
00008058 00000000
0000805c fffffffc
00008060 00000003
00008064 00000007
00008068 00000002
0000806c fffffffc
00008070 00000005
00008074 fffffff9
00008078 fffffff9
0000807c 00000003
00008080 00000007
00008084 00000005
00008088 fffffffd
0000808c fffffffe
00008090 00000008
00008094 00000008
00008098 ffffffff
0000809c fffffffc
000080a0 00000005
000080a4 00000003
000080a8 00000000
000080ac 00000007
000080b0 00000002
000080b4 fffffffc
000080b8 fffffffa
000080bc 00000006
000080c0 fffffffc
000080c4 fffffff9
000080c8 fffffffd
000080cc 00000000
000080d0 00000001
000080d4 00000005
000080d8 fffffffa
000080dc fffffff8
000080e0 ffffffff
000080e4 00000006
000080e8 fffffffb
000080ec fffffffc
000080f0 00000004
000080f4 ffffffff
000080f8 00000000
000080fc 00000005
00008100 00000007
00008104 00000001
00008108 00000007
0000810c ffffffff
00008110 00000006
00008114 ffffffff
00008118 fffffff9
0000811c fffffff8
00008120 ffffffff
00008124 00000001
00008128 fffffff8
0000812c fffffff8
00008130 fffffffb
00008134 fffffffe
00008138 ffffffff
0000813c 00000004
00008140 00000005
00008144 ffffffff
00008148 00000008
0000814c 00000003
00008150 ffffffff
00008154 fffffff9
00008158 00000001
0000815c fffffffb
00008160 00000003
00008164 fffffffb
00008168 fffffff9
0000816c 00000003
00008170 fffffffc
00008174 00000000
00008178 fffffff9
0000817c fffffffe
00008180 fffffffe
00008184 fffffffb
00008188 fffffff8
0000818c 00000008
00008190 fffffffb
00008194 00000002
00008198 00000006
0000819c fffffffb
000081a0 fffffffc
000081a4 fffffffa
000081a8 fffffffd
000081ac fffffff9
000081b0 fffffff8
000081b4 00000004
000081b8 00000003
000081bc 00000002
000081c0 00000007
000081c4 fffffffe
000081c8 00000006
000081cc 00000004
000081d0 00000005
000081d4 fffffffe
000081d8 fffffff9
000081dc fffffffe
000081e0 00000003
000081e4 fffffffb
000081e8 00000002
000081ec 00000002
000081f0 00000002
000081f4 00000005
000081f8 00000006
000081fc fffffff8
00008200 00000008
00008204 fffffffe
00008208 00000001
0000820c fffffffc
00008210 00000002
00008214 fffffffe
00008218 fffffffb
0000821c 00000001
00008220 fffffffd
00008224 fffffffd
00008228 fffffffc
0000822c 00000005
00008230 fffffffb
00008234 00000006
00008238 00000001
0000823c 00000004
00009000 0000070b
00009004 0000060b
00009008 0000065a
0000900c ffffffde
00009010 ffffff2b
00009014 fffffa58
00009018 00000211
0000901c fffffd8b
00009020 00000290
00009024 fffffb93
00009028 fffff9a4
0000902c fffffb58
00009030 fffffa58
00009034 000002c2
00009038 fffffe91
0000903c fffffd1e
0000a000 1c2dc8b7
0000a004 14d299fa
0000a008 2652e33e
0000a00c 310cd3ad
0000a010 3d80fe0e
0000a014 3d94c273
0000a018 397fcefd
0000a01c 29e6ecc2
0000a020 30f395fc
0000a024 1f01f432
0000a028 1bd609e0
0000a02c 38d76413
0000a030 35343db7
0000a034 1edb0388
0000a038 36391130
0000a03c 269876d7
0000b000 00000009
0000b004 00000008
0000b008 00000009
0000b00c 00000005
0000b010 00000006
0000b014 00000008
0000b018 00000009
0000b01c 00000009
0000b020 00000007
0000b024 00000007
0000b028 00000006
0000b02c 00000008
0000b030 00000005
0000b034 00000007
0000b038 00000006
0000b03c 00000007
0000c000 00000007
0000c004 00000008
0000c008 00000007
0000c00c ffffffff
0000c010 00000007
0000c014 fffffffa
0000c018 00000005
0000c01c fffffff9
0000c020 00000006
0000c024 00000003
0000c028 fffffff8
0000c02c ffffffff
0000c030 fffffffa
0000c034 00000001
0000c038 ffffffff
0000c03c 00000007
0000c040 fffffffd
0000c044 fffffffb
0000c048 00000007
0000c04c fffffffa
0000c050 00000001
0000c054 00000004
0000c058 00000006
0000c05c ffffffff
0000c060 00000000
0000c064 00000003
0000c068 00000004
0000c06c fffffffa
0000c070 00000007
0000c074 00000007
0000c078 fffffffd
0000c07c 00000000
0000c080 00000000
0000c084 00000006
0000c088 fffffffa
0000c08c 00000006
0000c090 00000005
0000c094 fffffffc
0000c098 fffffffb
0000c09c 00000006
0000c0a0 fffffffb
0000c0a4 00000007
0000c0a8 fffffffb
0000c0ac 00000004
0000c0b0 00000002
0000c0b4 00000005
0000c0b8 ffffffff
0000c0bc 00000008
0000c0c0 00000003
0000c0c4 00000005
0000c0c8 00000004
0000c0cc 00000002
0000c0d0 fffffffc
0000c0d4 00000007
0000c0d8 fffffffe
0000c0dc fffffffb
0000c0e0 fffffffe
0000c0e4 fffffffc
0000c0e8 fffffff8
0000c0ec 00000007
0000c0f0 00000002
0000c0f4 00000003
0000c0f8 fffffffc
0000c0fc 00000000
0000c100 00000005
0000c104 00000000
0000c108 00000006
0000c10c fffffffb
0000c110 00000007
0000c114 ffffffff
0000c118 00000005
0000c11c fffffff8
0000c120 00000005
0000c124 fffffffd
0000c128 fffffff8
0000c12c 00000001
0000c130 00000001
0000c134 fffffffc
0000c138 ffffffff
0000c13c 00000006
0000c140 fffffffc
0000c144 00000008
0000c148 fffffff8
0000c14c fffffff9
0000c150 00000005
0000c154 ffffffff
0000c158 ffffffff
0000c15c fffffffd
0000c160 fffffffc
0000c164 00000006
0000c168 00000004
0000c16c ffffffff
0000c170 00000001
0000c174 00000006
0000c178 fffffffb
0000c17c ffffffff
0000c180 00000000
0000c184 fffffff9
0000c188 fffffffb
0000c18c 00000005
0000c190 00000000
0000c194 00000002
0000c198 fffffff9
0000c19c fffffff9
0000c1a0 00000007
0000c1a4 fffffffe
0000c1a8 fffffffe
0000c1ac fffffffa
0000c1b0 00000006
0000c1b4 00000006
0000c1b8 00000006
0000c1bc 00000005
0000c1c0 fffffffd
0000c1c4 fffffffe
0000c1c8 00000004
0000c1cc fffffffe
0000c1d0 fffffff9
0000c1d4 ffffffff
0000c1d8 00000000
0000c1dc fffffffa
0000c1e0 fffffff8
0000c1e4 00000002
0000c1e8 fffffffb
0000c1ec fffffff8
0000c1f0 fffffff8
0000c1f4 00000001
0000c1f8 00000006
0000c1fc fffffffa
0000c200 00000004
0000c204 00000002
0000c208 fffffff8
0000c20c fffffff8
0000c210 00000008
0000c214 fffffffc
0000c218 00000008
0000c21c fffffff8
0000c220 00000001
0000c224 fffffffe
0000c228 00000002
0000c22c ffffffff
0000c230 fffffffa
0000c234 00000007
0000c238 fffffff9
0000c23c fffffff8
0000c240 00000008
0000c244 fffffffd
0000c248 00000003
0000c24c fffffffd
0000c250 fffffffe
0000c254 00000001
0000c258 fffffffb
0000c25c fffffffd
0000c260 fffffffe
0000c264 00000000
0000c268 00000000
0000c26c fffffffc
0000c270 00000005
0000c274 00000004
0000c278 fffffff8
0000c27c 00000004
0000c280 00000000
0000c284 fffffff8
0000c288 00000008
0000c28c 00000007
0000c290 00000000
0000c294 00000004
0000c298 fffffffd
0000c29c fffffffe
0000c2a0 00000002
0000c2a4 fffffffa
0000c2a8 00000001
0000c2ac fffffffb
0000c2b0 00000005
0000c2b4 fffffffa
0000c2b8 fffffffe
0000c2bc fffffffc
0000c2c0 ffffffff
0000c2c4 fffffffc
0000c2c8 00000002
0000c2cc fffffff9
0000c2d0 fffffffd
0000c2d4 fffffffc
0000c2d8 00000005
0000c2dc 00000004
0000c2e0 fffffff8
0000c2e4 00000001
0000c2e8 00000000
0000c2ec 00000007
0000c2f0 00000001
0000c2f4 fffffffa
0000c2f8 00000001
0000c2fc fffffffe
0000c300 fffffffe
0000c304 ffffffff
0000c308 00000001
0000c30c ffffffff
0000c310 00000001
0000c314 00000001
0000c318 00000000
0000c31c 00000001
0000c320 00000007
0000c324 fffffffd
0000c328 fffffffd
0000c32c 00000001
0000c330 00000001
0000c334 ffffffff
0000c338 fffffffe
0000c33c fffffff8
0000c340 fffffffe
0000c344 fffffffc
0000c348 00000002
0000c34c fffffff8
0000c350 fffffff9
0000c354 00000003
0000c358 00000005
0000c35c 00000001
0000c360 ffffffff
0000c364 00000005
0000c368 00000008
0000c36c 00000000
0000c370 00000007
0000c374 00000005
0000c378 00000002
0000c37c 00000003
0000c380 fffffff9
0000c384 fffffffa
0000c388 fffffff9
0000c38c 00000007
0000c390 fffffffd
0000c394 00000003
0000c398 fffffffb
0000c39c 00000001
0000c3a0 fffffffa
0000c3a4 fffffff8
0000c3a8 00000007
0000c3ac 00000002
0000c3b0 fffffffb
0000c3b4 fffffffd
0000c3b8 00000003
0000c3bc fffffffa
0000c3c0 00000002
0000c3c4 00000008
0000c3c8 00000002
0000c3cc fffffffe
0000c3d0 00000003
0000c3d4 00000007
0000c3d8 00000005
0000c3dc ffffffff
0000c3e0 00000006
0000c3e4 fffffffe
0000c3e8 fffffffd
0000c3ec 00000006
0000c3f0 00000005
0000c3f4 ffffffff
0000c3f8 00000001
0000c3fc ffffffff
0000d000 00000a7c
0000d004 00000c16
0000d008 00000004
0000d00c 00000b5a
0000d010 00000a06
0000d014 fffff18c
0000d018 fffff124
0000d01c fffffbf4
0000d020 00000b34
0000d024 fffff17c
0000d028 fffff234
0000d02c 00000c94
0000d030 fffff5f6
0000d034 fffff25d
0000d038 fffff220
0000d03c 000009c6
0000d100 1c8f7ef5
0000d104 2fdfd583
0000d108 27a1c660
0000d10c 3e0e1040
0000d110 15575910
0000d114 14fe3d6f
0000d118 31bd2376
0000d11c 2f9799a6
0000d120 3267b17a
0000d124 2178c3d5
0000d128 3f642ca4
0000d12c 34871cef
0000d130 39520a36
0000d134 2ef0be6f
0000d138 326c1237
0000d13c 3e743921
0000d200 00000007
0000d204 00000005
0000d208 00000008
0000d20c 00000008
0000d210 00000009
0000d214 00000005
0000d218 00000009
0000d21c 00000008
0000d220 00000009
0000d224 00000005
0000d228 00000007
0000d22c 00000005
0000d230 00000009
0000d234 00000005
0000d238 00000006
0000d23c 00000008
00006000 07
00006004 02
00006008 01
0000600c 00
00006010 00
00006014 07
00006018 1c
0000601c 0b
00006020 00
00006024 01
00006028 00
0000602c 09
00006030 00
00006034 01
00006038 00
0000603c 01
00006040 00
00006044 00
00006048 00
0000604c 00
00006050 00
00006054 03
00006058 20
0000605c 08
00006060 00
00006064 01
00006068 00
0000606c 1f
00006070 00
00006074 01
00006078 00
0000607c 03
00006080 03
00006084 01
00006088 00
0000608c 00
00006090 00
00006094 03
00006098 18
0000609c 09
000060a0 00
000060a4 01
000060a8 00
000060ac 18
000060b0 00
000060b4 01
000060b8 00
000060bc 00
000060c0 01
000060c4 00
000060c8 00
000060cc 00
000060d0 00
000060d4 04
000060d8 11
000060dc 0b
000060e0 02
000060e4 00
000060e8 00
000060ec 12
000060f0 00
000060f4 01
000060f8 00
000060fc 01
00006100 03
00006104 00
00006108 01
0000610c 00
00006110 01
00006114 09
00006118 25
0000611c 05
00006120 00
00006124 00
00006128 00
0000612c 12
00006130 00
00006134 01
00006138 00
0000613c 02
00006140 05
00006144 00
00006148 01
0000614c 00
00006150 00
00006154 04
00006158 11
0000615c 0b
00006160 00
00006164 00
00006168 00
0000616c 14
00006170 00
00006174 01
00006178 00
0000617c 03
00006180 09
00006184 00
00006188 00
0000618c 00
00006190 00
00006194 05
00006198 0c
0000619c 00
000061a0 00
000061a4 01
000061a8 00
000061ac 0d
000061b0 00
000061b4 00
000061b8 00
000061bc 01
000061c0 08
000061c4 02
000061c8 01
000061cc 00
000061d0 00
000061d4 01
000061d8 20
000061dc 0e
000061e0 00
000061e4 02
000061e8 00
000061ec 08
000061f0 00
000061f4 00
000061f8 00
000061fc 00
00006200 06
00006204 00
00006208 02
0000620c 00
00006210 00
00006214 05
00006218 0a
0000621c 01
00006220 00
00006224 02
00006228 00
0000622c 0a
00006230 00
00006234 00
00006238 01
0000623c 00
00006240 0b
00006244 00
00006248 00
0000624c 00
00006250 00
00006254 01
00006258 09
0000625c 03
00006260 00
00006264 00
00006268 00
0000626c 04
00006270 00
00006274 01
00006278 02
0000627c 01
00006280 0a
00006284 00
00006288 00
0000628c 00
00006290 00
00006294 00
00006298 0b
0000629c 03
000062a0 00
000062a4 00
000062a8 00
000062ac 04
000062b0 00
000062b4 01
000062b8 02
000062bc 01
000062c0 06
000062c4 01
000062c8 01
000062cc 00
000062d0 00
000062d4 00
000062d8 06
000062dc 06
000062e0 00
000062e4 00
000062e8 00
000062ec 0e
000062f0 00
000062f4 01
000062f8 00
000062fc 00
00006300 01
00006304 02
00006308 01
0000630c 00
00006310 00
00006314 06
00006318 03
0000631c 0f
00006320 00
00006324 00
00006328 00
0000632c 18
00006330 00
00006334 01
00006338 00
0000633c 01
00006340 00
00006344 01
00006348 01
0000634c 00
00006350 00
00006354 06
00006358 1f
0000635c 0c
00006360 00
00006364 00
00006368 04
0000636c 13
00006370 00
00006374 01
00006378 00
0000637c 00
00006380 0a
00006384 02
00006388 02
0000638c 01
00006390 00
00006394 0a
00006398 1c
0000639c 10
000063a0 04
000063a4 00
000063a8 00
000063ac 05
000063b0 00
000063b4 00
000063b8 03
000063bc 00
000063c0 00
000063c4 00
000063c8 02
000063cc 00
000063d0 00
000063d4 05
000063d8 20
000063dc 0b
000063e0 00
000063e4 01
000063e8 00
000063ec 13
000063f0 00
000063f4 00
000063f8 00
000063fc 03
00006400 0a
00006404 00
00006408 01
0000640c 00
00006410 00
00006414 02
00006418 0f
0000641c 05
00006420 00
00006424 02
00006428 00
0000642c 10
00006430 00
00006434 00
00006438 00
0000643c 06
00006440 0d
00006444 01
00006448 00
0000644c 00
00006450 00
00006454 03
00006458 20
0000645c 08
00006460 00
00006464 03
00006468 00
0000646c 00
00006470 00
00006474 00
00006478 01
0000647c 00
00006480 06
00006484 06
00006488 02
0000648c 00
00006490 00
00006494 00
00006498 1e
0000649c 11
000064a0 00
000064a4 00
000064a8 00
000064ac 00
000064b0 00
000064b4 00
000064b8 02
000064bc 02
000064c0 00
000064c4 00
000064c8 03
000064cc 00
000064d0 08
000064d4 03
000064d8 1f
000064dc 09
000064e0 00
000064e4 00
000064e8 00
000064ec 19
000064f0 00
000064f4 00
000064f8 02
000064fc 02
00006500 0b
00006504 01
00006508 02
0000650c 00
00006510 00
00006514 02
00006518 18
0000651c 0b
00006520 00
00006524 00
00006528 00
0000652c 0d
00006530 00
00006534 00
00006538 00
0000653c 01
00006540 07
00006544 00
00006548 01
0000654c 00
00006550 00
00006554 01
00006558 17
0000655c 10
00006560 03
00006564 00
00006568 00
0000656c 10
00006570 00
00006574 01
00006578 01
0000657c 02
00006580 04
00006584 02
00006588 01
0000658c 00
00006590 00
00006594 00
00006598 17
0000659c 10
000065a0 08
000065a4 00
000065a8 00
000065ac 12
000065b0 00
000065b4 01
000065b8 00
000065bc 02
000065c0 04
000065c4 00
000065c8 00
000065cc 00
000065d0 00
000065d4 07
000065d8 1b
000065dc 10
000065e0 00
000065e4 01
000065e8 00
000065ec 18
000065f0 00
000065f4 01
000065f8 00
000065fc 01
00006600 0b
00006604 01
00006608 02
0000660c 00
00006610 00
00006614 06
00006618 10
0000661c 01
00006620 00
00006624 01
00006628 00
0000662c 09
00006630 00
00006634 00
00006638 00
0000663c 02
00006640 05
00006644 00
00006648 01
0000664c 00
00006650 00
00006654 00
00006658 0f
0000665c 0d
00006660 00
00006664 00
00006668 00
0000666c 00
00006670 00
00006674 01
00006678 02
0000667c 00
00006680 04
00006684 00
00006688 00
0000668c 00
00006690 00
00006694 05
00006698 00
0000669c 07
000066a0 00
000066a4 00
000066a8 00
000066ac 15
000066b0 00
000066b4 00
000066b8 02
000066bc 02
000066c0 0b
000066c4 01
000066c8 00
000066cc 00
000066d0 00
000066d4 00
000066d8 0f
000066dc 14
000066e0 00
000066e4 00
000066e8 00
000066ec 04
000066f0 00
000066f4 00
000066f8 00
000066fc 00
00006700 04
00006704 00
00006708 00
0000670c 00
00006710 00
00006714 03
00006718 20
0000671c 0c
00006720 08
00006724 00
00006728 00
0000672c 11
00006730 00
00006734 01
00006738 00
0000673c 02
00006740 00
00006744 01
00006748 01
0000674c 00
00006750 01
00006754 04
00006758 1e
0000675c 0b
00006760 00
00006764 00
00006768 00
0000676c 0f
00006770 00
00006774 01
00006778 00
0000677c 01
00006780 05
00006784 00
00006788 01
0000678c 00
00006790 01
00006794 09
00006798 1c
0000679c 0c
000067a0 01
000067a4 00
000067a8 00
000067ac 29
000067b0 00
000067b4 01
000067b8 01
000067bc 04
000067c0 07
000067c4 00
000067c8 00
000067cc 00
000067d0 00
000067d4 00
000067d8 26
000067dc 0a
000067e0 00
000067e4 04
000067e8 00
000067ec 0a
000067f0 00
000067f4 01
000067f8 00
000067fc 01
00006800 0b
00006804 00
00006808 01
0000680c 00
00006810 00
00006814 08
00006818 10
0000681c 03
00006820 00
00006824 02
00006828 00
0000682c 03
00006830 00
00006834 00
00006838 01
0000683c 01
00006840 09
00006844 03
00006848 00
0000684c 00
00006850 00
00006854 00
00006858 0c
0000685c 11
00006860 00
00006864 01
00006868 03
0000686c 04
00006870 00
00006874 00
00006878 01
0000687c 02
00006880 04
00006884 00
00006888 01
0000688c 00
00006890 04
00006894 08
00006898 20
0000689c 07
000068a0 00
000068a4 01
000068a8 00
000068ac 0c
000068b0 00
000068b4 00
000068b8 01
000068bc 01
000068c0 07
000068c4 00
000068c8 00
000068cc 00
000068d0 00
000068d4 05
000068d8 1a
000068dc 05
000068e0 00
000068e4 05
000068e8 00
000068ec 17
000068f0 00
000068f4 01
000068f8 00
000068fc 01
00006900 09
00006904 03
00006908 00
0000690c 00
00006910 00
00006914 00
00006918 21
0000691c 08
00006920 00
00006924 02
00006928 00
0000692c 00
00006930 00
00006934 01
00006938 00
0000693c 00
00006940 08
00006944 00
00006948 00
0000694c 00
00006950 00
00006954 02
00006958 16
0000695c 07
00006960 00
00006964 00
00006968 00
0000696c 12
00006970 00
00006974 01
00006978 01
0000697c 01
00006980 0a
00006984 03
00006988 01
0000698c 00
00006990 00
00006994 02
00006998 10
0000699c 0f
000069a0 09
000069a4 00
000069a8 01
000069ac 00
000069b0 00
000069b4 00
000069b8 00
000069bc 01
000069c0 00
000069c4 00
000069c8 01
000069cc 00
000069d0 00
000069d4 02
000069d8 26
000069dc 0b
000069e0 00
000069e4 02
000069e8 00
000069ec 1d
000069f0 00
000069f4 01
000069f8 00
000069fc 05
00006a00 0e
00006a04 01
00006a08 01
00006a0c 00
00006a10 00
00006a14 00
00006a18 21
00006a1c 04
00006a20 00
00006a24 03
00006a28 00
00006a2c 00
00006a30 00
00006a34 00
00006a38 00
00006a3c 03
00006a40 08
00006a44 00
00006a48 00
00006a4c 00
00006a50 00
00006a54 00
00006a58 21
00006a5c 08
00006a60 00
00006a64 01
00006a68 00
00006a6c 05
00006a70 00
00006a74 01
00006a78 02
00006a7c 01
00006a80 05
00006a84 01
00006a88 02
00006a8c 00
00006a90 00
00006a94 03
00006a98 00
00006a9c 0b
00006aa0 00
00006aa4 03
00006aa8 00
00006aac 00
00006ab0 00
00006ab4 01
00006ab8 00
00006abc 00
00006ac0 02
00006ac4 01
00006ac8 02
00006acc 00
00006ad0 00
00006ad4 00
00006ad8 16
00006adc 05
00006ae0 03
00006ae4 01
00006ae8 05
00006aec 04
00006af0 00
00006af4 01
00006af8 01
00006afc 04
00006b00 06
00006b04 00
00006b08 01
00006b0c 00
00006b10 00
00006b14 02
00006b18 2b
00006b1c 07
00006b20 00
00006b24 02
00006b28 00
00006b2c 25
00006b30 00
00006b34 00
00006b38 02
00006b3c 05
00006b40 0b
00006b44 01
00006b48 01
00006b4c 00
00006b50 00
00006b54 00
00006b58 2a
00006b5c 09
00006b60 00
00006b64 02
00006b68 00
00006b6c 00
00006b70 00
00006b74 00
00006b78 01
00006b7c 00
00006b80 0a
00006b84 01
00006b88 01
00006b8c 00
00006b90 00
00006b94 00
00006b98 25
00006b9c 09
00006ba0 00
00006ba4 03
00006ba8 00
00006bac 11
00006bb0 00
00006bb4 01
00006bb8 01
00006bbc 01
00006bc0 09
00006bc4 00
00006bc8 00
00006bcc 00
00006bd0 00
00006bd4 03
00006bd8 0a
00006bdc 09
00006be0 00
00006be4 01
00006be8 00
00006bec 09
00006bf0 00
00006bf4 00
00006bf8 01
00006bfc 01
00006c00 05
00006c04 01
00006c08 00
00006c0c 00
00006c10 00
00006c14 03
00006c18 15
00006c1c 0a
00006c20 00
00006c24 02
00006c28 00
00006c2c 0a
00006c30 00
00006c34 00
00006c38 00
00006c3c 01
00006c40 03
00006c44 00
00006c48 01
00006c4c 00
00006c50 00
00006c54 06
00006c58 21
00006c5c 09
00006c60 00
00006c64 01
00006c68 00
00006c6c 07
00006c70 00
00006c74 00
00006c78 03
00006c7c 01
00006c80 0a
00006c84 00
00006c88 01
00006c8c 00
00006c90 00
00006c94 03
00006c98 10
00006c9c 0b
00006ca0 00
00006ca4 01
00006ca8 00
00006cac 04
00006cb0 00
00006cb4 00
00006cb8 02
00006cbc 00
00006cc0 0b
00006cc4 04
00006cc8 00
00006ccc 00
00006cd0 00
00006cd4 05
00006cd8 2d
00006cdc 0d
00006ce0 00
00006ce4 03
00006ce8 00
00006cec 0d
00006cf0 00
00006cf4 00
00006cf8 00
00006cfc 01
00006d00 08
00006d04 00
00006d08 00
00006d0c 00
00006d10 00
00006d14 03
00006d18 1f
00006d1c 0c
00006d20 01
00006d24 00
00006d28 00
00006d2c 0b
00006d30 00
00006d34 00
00006d38 02
00006d3c 03
00006d40 0c
00006d44 00
00006d48 00
00006d4c 00
00006d50 00
00006d54 0a
00006d58 00
00006d5c 04
00006d60 00
00006d64 02
00006d68 00
00006d6c 07
00006d70 00
00006d74 00
00006d78 01
00006d7c 03
00006d80 0c
00006d84 01
00006d88 00
00006d8c 00
00006d90 00
00006d94 00
00006d98 30
00006d9c 0c
00006da0 00
00006da4 02
00006da8 00
00006dac 00
00006db0 00
00006db4 01
00006db8 00
00006dbc 04
00006dc0 07
00006dc4 01
00006dc8 01
00006dcc 00
00006dd0 00
00006dd4 00
00006dd8 25
00006ddc 05
00006de0 00
00006de4 04
00006de8 00
00006dec 08
00006df0 00
00006df4 01
00006df8 01
00006dfc 02
00006e00 0a
00006e04 00
00006e08 01
00006e0c 00
00006e10 00
00006e14 01
00006e18 17
00006e1c 06
00006e20 00
00006e24 01
00006e28 00
00006e2c 10
00006e30 00
00006e34 00
00006e38 01
00006e3c 03
00006e40 0b
00006e44 01
00006e48 01
00006e4c 00
00006e50 00
00006e54 00
00006e58 0d
00006e5c 0f
00006e60 00
00006e64 00
00006e68 00
00006e6c 07
00006e70 00
00006e74 00
00006e78 01
00006e7c 02
00006e80 06
00006e84 01
00006e88 01
00006e8c 00
00006e90 00
00006e94 01
00006e98 26
00006e9c 0d
00006ea0 00
00006ea4 01
00006ea8 00
00006eac 0e
00006eb0 00
00006eb4 00
00006eb8 00
00006ebc 04
00006ec0 06
00006ec4 00
00006ec8 00
00006ecc 00
00006ed0 00
00006ed4 04
00006ed8 1b
00006edc 08
00006ee0 00
00006ee4 03
00006ee8 00
00006eec 15
00006ef0 00
00006ef4 01
00006ef8 00
00006efc 03
00006f00 0b
00006f04 03
00006f08 01
00006f0c 00
00006f10 00
00006f14 00
00006f18 13
00006f1c 06
00006f20 00
00006f24 02
00006f28 00
00006f2c 05
00006f30 00
00006f34 00
00006f38 00
00006f3c 01
00006f40 05
00006f44 01
00006f48 03
00006f4c 00
00006f50 00
00006f54 0a
00006f58 12
00006f5c 07
00006f60 00
00006f64 02
00006f68 00
00006f6c 06
00006f70 00
00006f74 00
00006f78 01
00006f7c 00
00006f80 09
00006f84 00
00006f88 01
00006f8c 00
00006f90 00
00006f94 06
00006f98 11
00006f9c 09
00006fa0 00
00006fa4 01
00006fa8 00
00006fac 07
00006fb0 00
00006fb4 00
00006fb8 02
00006fbc 02
00006fc0 08
00006fc4 02
00006fc8 02
00006fcc 00
00006fd0 00
00006fd4 00
00006fd8 10
00006fdc 0a
00006fe0 00
00006fe4 00
00006fe8 00
00006fec 00
00006ff0 00
00006ff4 00
00006ff8 02
00006ffc 02
0000e000 07
0000e004 27
0000e008 03
0000e00c 08
0000e010 03
0000e014 00
0000e018 00
0000e01c 01
0000e020 05
0000e024 00
0000e028 00
0000e02c 2b
0000e030 00
0000e034 00
0000e038 00
0000e03c 07
0000e040 07
0000e044 27
0000e048 03
0000e04c 08
0000e050 03
0000e054 00
0000e058 00
0000e05c 01
0000e060 05
0000e064 00
0000e068 00
0000e06c 2b
0000e070 00
0000e074 00
0000e078 00
0000e07c 07
0000e080 07
0000e084 27
0000e088 03
0000e08c 08
0000e090 03
0000e094 00
0000e098 00
0000e09c 01
0000e0a0 05
0000e0a4 00
0000e0a8 00
0000e0ac 2b
0000e0b0 00
0000e0b4 00
0000e0b8 00
0000e0bc 07
0000e0c0 07
0000e0c4 27
0000e0c8 03
0000e0cc 08
0000e0d0 03
0000e0d4 00
0000e0d8 00
0000e0dc 01
0000e0e0 05
0000e0e4 00
0000e0e8 00
0000e0ec 2b
0000e0f0 00
0000e0f4 00
0000e0f8 00
0000e0fc 07
0000e100 07
0000e104 27
0000e108 03
0000e10c 08
0000e110 03
0000e114 00
0000e118 00
0000e11c 01
0000e120 05
0000e124 00
0000e128 00
0000e12c 2b
0000e130 00
0000e134 00
0000e138 00
0000e13c 07
0000e140 07
0000e144 27
0000e148 03
0000e14c 08
0000e150 03
0000e154 00
0000e158 00
0000e15c 01
0000e160 05
0000e164 00
0000e168 00
0000e16c 2b
0000e170 00
0000e174 00
0000e178 00
0000e17c 07
0000e180 07
0000e184 27
0000e188 03
0000e18c 08
0000e190 03
0000e194 00
0000e198 00
0000e19c 01
0000e1a0 05
0000e1a4 00
0000e1a8 00
0000e1ac 2b
0000e1b0 00
0000e1b4 00
0000e1b8 00
0000e1bc 07
0000e1c0 07
0000e1c4 27
0000e1c8 03
0000e1cc 08
0000e1d0 03
0000e1d4 00
0000e1d8 00
0000e1dc 01
0000e1e0 05
0000e1e4 00
0000e1e8 00
0000e1ec 2b
0000e1f0 00
0000e1f4 00
0000e1f8 00
0000e1fc 07
0000e200 07
0000e204 27
0000e208 03
0000e20c 08
0000e210 03
0000e214 00
0000e218 00
0000e21c 01
0000e220 05
0000e224 00
0000e228 00
0000e22c 2b
0000e230 00
0000e234 00
0000e238 00
0000e23c 07
0000e240 07
0000e244 27
0000e248 03
0000e24c 08
0000e250 03
0000e254 00
0000e258 00
0000e25c 01
0000e260 05
0000e264 00
0000e268 00
0000e26c 2b
0000e270 00
0000e274 00
0000e278 00
0000e27c 07
0000e280 07
0000e284 27
0000e288 03
0000e28c 08
0000e290 03
0000e294 00
0000e298 00
0000e29c 01
0000e2a0 05
0000e2a4 00
0000e2a8 00
0000e2ac 2b
0000e2b0 00
0000e2b4 00
0000e2b8 00
0000e2bc 07
0000e2c0 07
0000e2c4 27
0000e2c8 03
0000e2cc 08
0000e2d0 03
0000e2d4 00
0000e2d8 00
0000e2dc 01
0000e2e0 05
0000e2e4 00
0000e2e8 00
0000e2ec 2b
0000e2f0 00
0000e2f4 00
0000e2f8 00
0000e2fc 07
0000e300 07
0000e304 27
0000e308 03
0000e30c 08
0000e310 03
0000e314 00
0000e318 00
0000e31c 01
0000e320 05
0000e324 00
0000e328 00
0000e32c 2b
0000e330 00
0000e334 00
0000e338 00
0000e33c 07
0000e340 07
0000e344 27
0000e348 03
0000e34c 08
0000e350 03
0000e354 00
0000e358 00
0000e35c 01
0000e360 05
0000e364 00
0000e368 00
0000e36c 2b
0000e370 00
0000e374 00
0000e378 00
0000e37c 07
0000e380 07
0000e384 27
0000e388 03
0000e38c 08
0000e390 03
0000e394 00
0000e398 00
0000e39c 01
0000e3a0 05
0000e3a4 00
0000e3a8 00
0000e3ac 2b
0000e3b0 00
0000e3b4 00
0000e3b8 00
0000e3bc 07
0000e3c0 07
0000e3c4 27
0000e3c8 03
0000e3cc 08
0000e3d0 03
0000e3d4 00
0000e3d8 00
0000e3dc 01
0000e3e0 05
0000e3e4 00
0000e3e8 00
0000e3ec 2b
0000e3f0 00
0000e3f4 00
0000e3f8 00
0000e3fc 07
0000e400 07
0000e404 27
0000e408 03
0000e40c 08
0000e410 03
0000e414 00
0000e418 00
0000e41c 01
0000e420 05
0000e424 00
0000e428 00
0000e42c 2b
0000e430 00
0000e434 00
0000e438 00
0000e43c 07
0000e440 07
0000e444 27
0000e448 03
0000e44c 08
0000e450 03
0000e454 00
0000e458 00
0000e45c 01
0000e460 05
0000e464 00
0000e468 00
0000e46c 2b
0000e470 00
0000e474 00
0000e478 00
0000e47c 07
0000e480 07
0000e484 27
0000e488 03
0000e48c 08
0000e490 03
0000e494 00
0000e498 00
0000e49c 01
0000e4a0 05
0000e4a4 00
0000e4a8 00
0000e4ac 2b
0000e4b0 00
0000e4b4 00
0000e4b8 00
0000e4bc 07
0000e4c0 07
0000e4c4 27
0000e4c8 03
0000e4cc 08
0000e4d0 03
0000e4d4 00
0000e4d8 00
0000e4dc 01
0000e4e0 05
0000e4e4 00
0000e4e8 00
0000e4ec 2b
0000e4f0 00
0000e4f4 00
0000e4f8 00
0000e4fc 07
0000e500 07
0000e504 27
0000e508 03
0000e50c 08
0000e510 03
0000e514 00
0000e518 00
0000e51c 01
0000e520 05
0000e524 00
0000e528 00
0000e52c 2b
0000e530 00
0000e534 00
0000e538 00
0000e53c 07
0000e540 07
0000e544 27
0000e548 03
0000e54c 08
0000e550 03
0000e554 00
0000e558 00
0000e55c 01
0000e560 05
0000e564 00
0000e568 00
0000e56c 2b
0000e570 00
0000e574 00
0000e578 00
0000e57c 07
0000e580 07
0000e584 27
0000e588 03
0000e58c 08
0000e590 03
0000e594 00
0000e598 00
0000e59c 01
0000e5a0 05
0000e5a4 00
0000e5a8 00
0000e5ac 2b
0000e5b0 00
0000e5b4 00
0000e5b8 00
0000e5bc 07
0000e5c0 07
0000e5c4 27
0000e5c8 03
0000e5cc 08
0000e5d0 03
0000e5d4 00
0000e5d8 00
0000e5dc 01
0000e5e0 05
0000e5e4 00
0000e5e8 00
0000e5ec 2b
0000e5f0 00
0000e5f4 00
0000e5f8 00
0000e5fc 07
0000e600 07
0000e604 27
0000e608 03
0000e60c 08
0000e610 03
0000e614 00
0000e618 00
0000e61c 01
0000e620 05
0000e624 00
0000e628 00
0000e62c 2b
0000e630 00
0000e634 00
0000e638 00
0000e63c 07
0000e640 07
0000e644 27
0000e648 03
0000e64c 08
0000e650 03
0000e654 00
0000e658 00
0000e65c 01
0000e660 05
0000e664 00
0000e668 00
0000e66c 2b
0000e670 00
0000e674 00
0000e678 00
0000e67c 07
0000e680 07
0000e684 27
0000e688 03
0000e68c 08
0000e690 03
0000e694 00
0000e698 00
0000e69c 01
0000e6a0 05
0000e6a4 00
0000e6a8 00
0000e6ac 2b
0000e6b0 00
0000e6b4 00
0000e6b8 00
0000e6bc 07
0000e6c0 07
0000e6c4 27
0000e6c8 03
0000e6cc 08
0000e6d0 03
0000e6d4 00
0000e6d8 00
0000e6dc 01
0000e6e0 05
0000e6e4 00
0000e6e8 00
0000e6ec 2b
0000e6f0 00
0000e6f4 00
0000e6f8 00
0000e6fc 07
0000e700 07
0000e704 27
0000e708 03
0000e70c 08
0000e710 03
0000e714 00
0000e718 00
0000e71c 01
0000e720 05
0000e724 00
0000e728 00
0000e72c 2b
0000e730 00
0000e734 00
0000e738 00
0000e73c 07
0000e740 07
0000e744 27
0000e748 03
0000e74c 08
0000e750 03
0000e754 00
0000e758 00
0000e75c 01
0000e760 05
0000e764 00
0000e768 00
0000e76c 2b
0000e770 00
0000e774 00
0000e778 00
0000e77c 07
0000e780 07
0000e784 27
0000e788 03
0000e78c 08
0000e790 03
0000e794 00
0000e798 00
0000e79c 01
0000e7a0 05
0000e7a4 00
0000e7a8 00
0000e7ac 2b
0000e7b0 00
0000e7b4 00
0000e7b8 00
0000e7bc 07
0000e7c0 07
0000e7c4 27
0000e7c8 03
0000e7cc 08
0000e7d0 03
0000e7d4 00
0000e7d8 00
0000e7dc 01
0000e7e0 05
0000e7e4 00
0000e7e8 00
0000e7ec 2b
0000e7f0 00
0000e7f4 00
0000e7f8 00
0000e7fc 07
0000e800 07
0000e804 27
0000e808 03
0000e80c 08
0000e810 03
0000e814 00
0000e818 00
0000e81c 01
0000e820 05
0000e824 00
0000e828 00
0000e82c 2b
0000e830 00
0000e834 00
0000e838 00
0000e83c 07
0000e840 07
0000e844 27
0000e848 03
0000e84c 08
0000e850 03
0000e854 00
0000e858 00
0000e85c 01
0000e860 05
0000e864 00
0000e868 00
0000e86c 2b
0000e870 00
0000e874 00
0000e878 00
0000e87c 07
0000e880 07
0000e884 27
0000e888 03
0000e88c 08
0000e890 03
0000e894 00
0000e898 00
0000e89c 01
0000e8a0 05
0000e8a4 00
0000e8a8 00
0000e8ac 2b
0000e8b0 00
0000e8b4 00
0000e8b8 00
0000e8bc 07
0000e8c0 07
0000e8c4 27
0000e8c8 03
0000e8cc 08
0000e8d0 03
0000e8d4 00
0000e8d8 00
0000e8dc 01
0000e8e0 05
0000e8e4 00
0000e8e8 00
0000e8ec 2b
0000e8f0 00
0000e8f4 00
0000e8f8 00
0000e8fc 07
00020000 2 6750 266
00020000 00000002
00020004 00021000
00020008 00026000
0002000c 00000000
00020010 00000000
00020014 00000000
00020018 00000000
0002001c 00000000
00020020 00000000
00020024 00000000
00020028 00000000
0002002c 00040004
00020030 01000100
00020034 00000000
00020038 00000000
0002003c 00000000
00020040 00000000
00020044 00000000
00020048 00000000
0002004c 00000000
00020050 00000000
00020054 00000000
00020058 00000000
0002005c 00000000
00020060 00000000
00020064 00000000
00020068 00000000
0002006c 00000000
00020070 00000000
00020074 00000000
00020078 00000000
0002007c 00000000
00020080 00000003
00020084 00026000
00020088 0002b000
0002008c 00000000
00020090 00000000
00020094 00000000
00020098 00000000
0002009c 00027000
000200a0 0002a000
000200a4 0002a100
000200a8 0002a200
000200ac 00010001
000200b0 000a0100
000200b4 00000000
000200b8 00000000
000200bc 00000000
000200c0 fffffffe
000200c4 7f800000
000200c8 00000000
000200cc 00000000
000200d0 00000000
000200d4 00000000
000200d8 00000000
000200dc 00000000
000200e0 00000000
000200e4 00000000
000200e8 00000000
000200ec 00000000
000200f0 00000000
000200f4 00000000
000200f8 00000000
000200fc 00000000
00021000 00000016
00021004 ffffffd3
00021008 00000042
0002100c ffffff84
00021010 ffffffe4
00021014 fffffffe
00021018 ffffffd1
0002101c 00000054
00021020 00000057
00021024 ffffffda
00021028 0000004c
0002102c 00000051
00021030 0000001d
00021034 0000004c
00021038 00000048
0002103c ffffffad
00021040 0000003d
00021044 ffffff99
00021048 00000065
0002104c ffffff92
00021050 ffffffaf
00021054 00000031
00021058 ffffffc9
0002105c ffffffb7
00021060 0000004a
00021064 ffffff90
00021068 fffffff4
0002106c 00000052
00021070 00000005
00021074 00000040
00021078 ffffff81
0002107c ffffffd3
00021080 0000002e
00021084 0000006e
00021088 ffffff95
0002108c ffffff82
00021090 00000007
00021094 ffffffcd
00021098 ffffffbe
0002109c fffffff5
000210a0 ffffff9a
000210a4 ffffff90
000210a8 ffffffd8
000210ac ffffffcc
000210b0 0000003e
000210b4 0000004d
000210b8 ffffff9a
000210bc ffffffd6
000210c0 ffffffa8
000210c4 00000016
000210c8 ffffff94
000210cc 00000070
000210d0 00000034
000210d4 00000076
000210d8 0000001c
000210dc ffffffcc
000210e0 00000075
000210e4 ffffffe4
000210e8 ffffffc6
000210ec 0000006b
000210f0 ffffffa5
000210f4 ffffff9a
000210f8 00000001
000210fc 00000026
00021100 00000045
00021104 ffffff9d
00021108 fffffff6
0002110c ffffff87
00021110 00000072
00021114 0000001f
00021118 ffffffcb
0002111c ffffffe3
00021120 ffffffba
00021124 0000004b
00021128 00000065
0002112c 0000005e
00021130 ffffffcb
00021134 00000006
00021138 0000003e
0002113c 00000004
00021140 0000006d
00021144 ffffffbc
00021148 ffffffd7
0002114c 0000001a
00021150 ffffffbb
00021154 ffffff9c
00021158 ffffffde
0002115c ffffff91
00021160 ffffffe1
00021164 ffffffd4
00021168 fffffffe
0002116c 0000005a
00021170 ffffffcb
00021174 0000000a
00021178 00000013
0002117c 00000016
00021180 ffffffd2
00021184 0000001f
00021188 0000006f
0002118c fffffff8
00021190 00000044
00021194 00000037
00021198 ffffffaa
0002119c ffffffb6
000211a0 0000004f
000211a4 00000036
000211a8 00000021
000211ac ffffffd0
000211b0 00000067
000211b4 0000004e
000211b8 ffffffcb
000211bc 0000001e
000211c0 ffffff95
000211c4 0000007c
000211c8 0000003a
000211cc fffffff9
000211d0 00000065
000211d4 0000000b
000211d8 00000071
000211dc 0000007d
000211e0 00000067
000211e4 00000030
000211e8 fffffff9
000211ec ffffff89
000211f0 ffffffcb
000211f4 0000005f
000211f8 ffffffb8
000211fc 00000015
00021200 00000065
00021204 00000009
00021208 00000015
0002120c 00000027
00021210 ffffff8d
00021214 ffffffd0
00021218 ffffffcf
0002121c 0000005a
00021220 00000008
00021224 ffffffb7
00021228 0000004f
0002122c 00000041
00021230 ffffffaf
00021234 0000005f
00021238 00000029
0002123c 0000007f
00021240 00000047
00021244 ffffffd0
00021248 0000004b
0002124c ffffff93
00021250 00000044
00021254 ffffffc1
00021258 0000003b
0002125c ffffffb6
00021260 00000037
00021264 ffffffd3
00021268 ffffffb8
0002126c 00000054
00021270 fffffff6
00021274 ffffffcf
00021278 00000077
0002127c ffffff9a
00021280 00000069
00021284 0000001d
00021288 0000000c
0002128c 0000005c
00021290 ffffffb1
00021294 ffffffe5
00021298 ffffffac
0002129c ffffffea
000212a0 00000061
000212a4 00000038
000212a8 00000041
000212ac 0000001e
000212b0 ffffffd0
000212b4 ffffffbb
000212b8 00000044
000212bc 0000000e
000212c0 0000007d
000212c4 00000067
000212c8 0000004a
000212cc 00000024
000212d0 0000007e
000212d4 ffffffc4
000212d8 ffffffd9
000212dc ffffffe7
000212e0 00000063
000212e4 ffffffd9
000212e8 0000001c
000212ec ffffffa8
000212f0 ffffffbc
000212f4 00000006
000212f8 00000015
000212fc 0000004e
00021300 00000069
00021304 00000051
00021308 0000007f
0002130c ffffff86
00021310 00000046
00021314 ffffffba
00021318 fffffff4
0002131c ffffffac
00021320 ffffffa2
00021324 00000029
00021328 ffffffb3
0002132c 00000046
00021330 ffffffcc
00021334 ffffffc2
00021338 fffffff0
0002133c 00000079
00021340 ffffffe1
00021344 ffffff84
00021348 0000007a
0002134c 0000005c
00021350 fffffffc
00021354 ffffffa9
00021358 ffffffb5
0002135c ffffffc2
00021360 ffffff84
00021364 00000074
00021368 00000001
0002136c 00000010
00021370 0000005e
00021374 ffffff95
00021378 00000032
0002137c 0000002f
00021380 0000007d
00021384 00000069
00021388 ffffffcf
0002138c 0000000a
00021390 00000057
00021394 ffffff9e
00021398 ffffffb0
0002139c 00000004
000213a0 ffffff86
000213a4 ffffffe2
000213a8 ffffffee
000213ac fffffffb
000213b0 ffffff8f
000213b4 00000023
000213b8 0000005f
000213bc 0000001c
000213c0 ffffffd0
000213c4 0000007e
000213c8 00000015
000213cc 00000014
000213d0 ffffffe1
000213d4 00000054
000213d8 ffffffb2
000213dc 00000005
000213e0 0000000e
000213e4 ffffffda
000213e8 ffffffed
000213ec 0000000c
000213f0 ffffff90
000213f4 ffffffd7
000213f8 00000059
000213fc ffffffc6
00021400 ffffffae
00021404 ffffffc8
00021408 0000001d
0002140c 0000007c
00021410 fffffff9
00021414 00000000
00021418 fffffffa
0002141c 00000079
00021420 00000050
00021424 fffffff6
00021428 ffffffb9
0002142c 00000009
00021430 00000017
00021434 ffffffa9
00021438 ffffffe6
0002143c 0000007c
00021440 0000002c
00021444 ffffffcc
00021448 ffffffb4
0002144c 0000006f
00021450 0000005a
00021454 00000079
00021458 0000000a
0002145c 00000039
00021460 ffffff91
00021464 00000029
00021468 00000014
0002146c ffffff98
00021470 00000061
00021474 00000017
00021478 0000000b
0002147c ffffffb1
00021480 fffffff5
00021484 ffffffca
00021488 0000005c
0002148c 00000061
00021490 fffffff2
00021494 0000005a
00021498 00000016
0002149c ffffffad
000214a0 ffffff8f
000214a4 fffffffc
000214a8 00000052
000214ac 0000001e
000214b0 ffffffef
000214b4 00000061
000214b8 0000007d
000214bc 00000069
000214c0 ffffff8a
000214c4 0000006c
000214c8 00000003
000214cc 0000000c
000214d0 00000064
000214d4 00000025
000214d8 ffffff84
000214dc 00000012
000214e0 0000007f
000214e4 ffffffdd
000214e8 ffffff97
000214ec 00000012
000214f0 ffffffae
000214f4 ffffffb4
000214f8 ffffff8f
000214fc ffffffdb
00021500 0000007e
00021504 0000006f
00021508 0000004e
0002150c 0000000e
00021510 0000007b
00021514 00000019
00021518 0000001e
0002151c ffffffac
00021520 ffffffc8
00021524 ffffff82
00021528 ffffffc0
0002152c fffffff2
00021530 ffffff8c
00021534 0000000b
00021538 0000006e
0002153c ffffffdd
00021540 0000005c
00021544 ffffffe1
00021548 0000007e
0002154c ffffffe1
00021550 0000005b
00021554 ffffffde
00021558 0000000e
0002155c ffffffbf
00021560 00000011
00021564 0000005d
00021568 0000004f
0002156c ffffffb1
00021570 0000002f
00021574 ffffff9f
00021578 fffffff3
0002157c 00000034
00021580 ffffffe4
00021584 0000001f
00021588 ffffffd6
0002158c ffffffbe
00021590 ffffff80
00021594 00000024
00021598 ffffff83
0002159c 0000004f
000215a0 ffffffbc
000215a4 ffffffd2
000215a8 ffffff98
000215ac 0000003c
000215b0 00000068
000215b4 ffffffc2
000215b8 0000000e
000215bc ffffff8c
000215c0 0000006b
000215c4 ffffff9b
000215c8 ffffffda
000215cc ffffffd2
000215d0 00000060
000215d4 ffffff94
000215d8 0000001b
000215dc 0000004e
000215e0 0000004a
000215e4 00000054
000215e8 fffffff3
000215ec ffffffb1
000215f0 ffffff9d
000215f4 ffffffe0
000215f8 00000075
000215fc ffffffc0
00021600 ffffffae
00021604 0000006a
00021608 00000051
0002160c 0000007b
00021610 ffffffb9
00021614 00000017
00021618 00000062
0002161c 00000013
00021620 00000064
00021624 0000004d
00021628 00000020
0002162c ffffffd9
00021630 fffffff7
00021634 ffffffae
00021638 ffffffc5
0002163c 00000039
00021640 ffffffac
00021644 fffffff4
00021648 0000002c
0002164c 00000048
00021650 00000011
00021654 0000003b
00021658 ffffffc7
0002165c 00000037
00021660 ffffffb0
00021664 0000005d
00021668 ffffffcb
0002166c 0000004b
00021670 ffffff93
00021674 0000001a
00021678 ffffffbc
0002167c 00000015
00021680 ffffffd1
00021684 ffffffd6
00021688 ffffff9b
0002168c 0000001f
00021690 00000005
00021694 fffffffc
00021698 00000077
0002169c fffffff5
000216a0 0000001a
000216a4 ffffff94
000216a8 00000043
000216ac 00000024
000216b0 fffffff0
000216b4 ffffffc5
000216b8 00000069
000216bc 00000078
000216c0 ffffff83
000216c4 ffffffd6
000216c8 fffffff0
000216cc 0000000b
000216d0 00000078
000216d4 ffffffe7
000216d8 ffffffeb
000216dc ffffffce
000216e0 00000057
000216e4 fffffff1
000216e8 ffffffe1
000216ec 00000038
000216f0 00000003
000216f4 ffffff9d
000216f8 ffffff8a
000216fc ffffff97
00021700 ffffffa3
00021704 ffffffd2
00021708 0000002c
0002170c ffffffc0
00021710 00000072
00021714 ffffffac
00021718 ffffffae
0002171c 00000037
00021720 0000002b
00021724 ffffff8c
00021728 ffffff8d
0002172c 00000052
00021730 0000005f
00021734 ffffffc8
00021738 ffffffef
0002173c 00000002
00021740 00000007
00021744 ffffffa8
00021748 ffffffbf
0002174c ffffffdb
00021750 0000001b
00021754 ffffffa3
00021758 ffffffdb
0002175c ffffff9e
00021760 ffffffb6
00021764 0000007c
00021768 fffffff3
0002176c 00000007
00021770 ffffffa3
00021774 ffffff85
00021778 00000017
0002177c 0000002a
00021780 00000042
00021784 00000062
00021788 ffffffb0
0002178c ffffffd2
00021790 0000006b
00021794 ffffff96
00021798 00000020
0002179c 00000063
000217a0 ffffffb6
000217a4 ffffffb6
000217a8 fffffff8
000217ac 0000002c
000217b0 ffffff8d
000217b4 fffffff0
000217b8 00000069
000217bc ffffffe9
000217c0 ffffff96
000217c4 ffffffdf
000217c8 ffffff98
000217cc ffffffd2
000217d0 fffffffe
000217d4 ffffffa5
000217d8 00000070
000217dc ffffffb6
000217e0 0000002d
000217e4 ffffffdb
000217e8 00000077
000217ec 00000068
000217f0 ffffff89
000217f4 ffffff96
000217f8 ffffffb7
000217fc ffffff8b
00021800 0000002d
00021804 fffffff6
00021808 ffffffde
0002180c ffffff8a
00021810 0000007d
00021814 00000027
00021818 0000002b
0002181c ffffffa6
00021820 0000005e
00021824 0000007d
00021828 ffffff9e
0002182c ffffffb3
00021830 ffffffca
00021834 00000073
00021838 ffffffcb
0002183c 0000004c
00021840 00000056
00021844 ffffffe6
00021848 fffffff4
0002184c ffffffd3
00021850 0000005a
00021854 0000003a
00021858 00000077
0002185c fffffffb
00021860 00000055
00021864 ffffffda
00021868 00000074
0002186c 00000062
00021870 00000067
00021874 fffffffb
00021878 0000004d
0002187c 0000001e
00021880 00000059
00021884 ffffff8c
00021888 ffffffa4
0002188c fffffff4
00021890 fffffff0
00021894 00000042
00021898 00000006
0002189c ffffffc3
000218a0 0000006a
000218a4 ffffffdf
000218a8 ffffffcf
000218ac 00000033
000218b0 00000009
000218b4 ffffff94
000218b8 ffffffc1
000218bc 0000001c
000218c0 ffffffe8
000218c4 00000075
000218c8 00000067
000218cc ffffffa7
000218d0 0000007f
000218d4 ffffffcf
000218d8 ffffffb8
000218dc fffffff2
000218e0 00000072
000218e4 ffffffb9
000218e8 00000045
000218ec 0000006a
000218f0 ffffff90
000218f4 ffffff99
000218f8 00000062
000218fc ffffffda
00021900 ffffff90
00021904 ffffffb5
00021908 ffffffa7
0002190c ffffffa5
00021910 0000001f
00021914 ffffffd3
00021918 ffffffd5
0002191c fffffff1
00021920 ffffffaa
00021924 0000002a
00021928 0000007d
0002192c 00000077
00021930 ffffffa0
00021934 ffffffe3
00021938 00000043
0002193c ffffffb2
00021940 ffffff9f
00021944 00000054
00021948 00000049
0002194c 0000002e
00021950 ffffff9a
00021954 00000003
00021958 ffffffda
0002195c 00000040
00021960 00000000
00021964 ffffffbb
00021968 0000005e
0002196c 00000016
00021970 0000004b
00021974 0000007f
00021978 ffffffb6
0002197c 00000002
00021980 0000000f
00021984 0000000c
00021988 ffffffae
0002198c ffffff87
00021990 0000003e
00021994 0000004d
00021998 00000024
0002199c 00000020
000219a0 00000009
000219a4 0000006b
000219a8 00000000
000219ac ffffff90
000219b0 00000017
000219b4 00000062
000219b8 ffffffe1
000219bc ffffffd4
000219c0 ffffffce
000219c4 ffffff8c
000219c8 00000033
000219cc 00000041
000219d0 fffffff2
000219d4 fffffff4
000219d8 ffffffb5
000219dc 00000021
000219e0 ffffff8d
000219e4 ffffffa1
000219e8 00000075
000219ec ffffff87
000219f0 00000060
000219f4 00000017
000219f8 00000027
000219fc 00000079
00021a00 00000040
00021a04 00000035
00021a08 00000060
00021a0c 00000009
00021a10 0000002b
00021a14 ffffffb6
00021a18 00000077
00021a1c ffffffb2
00021a20 00000032
00021a24 00000042
00021a28 0000006e
00021a2c ffffffb9
00021a30 ffffff94
00021a34 ffffff9e
00021a38 0000005f
00021a3c ffffff8f
00021a40 00000008
00021a44 0000003c
00021a48 00000016
00021a4c ffffff99
00021a50 ffffff83
00021a54 00000064
00021a58 00000029
00021a5c 00000021
00021a60 0000007b
00021a64 fffffffb
00021a68 0000007b
00021a6c ffffff88
00021a70 ffffffe6
00021a74 ffffffcc
00021a78 0000007d
00021a7c 00000017
00021a80 00000018
00021a84 00000055
00021a88 0000003c
00021a8c fffffff0
00021a90 ffffffea
00021a94 ffffffd9
00021a98 00000033
00021a9c ffffffd4
00021aa0 ffffffc5
00021aa4 0000003b
00021aa8 ffffffef
00021aac ffffffff
00021ab0 ffffff83
00021ab4 ffffff95
00021ab8 00000017
00021abc 0000000e
00021ac0 ffffffb9
00021ac4 00000078
00021ac8 ffffffb3
00021acc ffffffc5
00021ad0 ffffffcd
00021ad4 ffffff93
00021ad8 00000062
00021adc ffffffaa
00021ae0 ffffffad
00021ae4 00000074
00021ae8 00000005
00021aec 00000015
00021af0 0000004a
00021af4 00000026
00021af8 00000043
00021afc ffffff96
00021b00 0000005d
00021b04 ffffff9a
00021b08 00000025
00021b0c 00000031
00021b10 0000002d
00021b14 ffffffec
00021b18 00000014
00021b1c ffffffb6
00021b20 ffffffb7
00021b24 00000001
00021b28 00000056
00021b2c 00000056
00021b30 00000011
00021b34 ffffffb5
00021b38 ffffffbf
00021b3c 00000059
00021b40 0000002d
00021b44 ffffff91
00021b48 ffffff8d
00021b4c ffffff9b
00021b50 0000007a
00021b54 ffffffde
00021b58 ffffff86
00021b5c 00000054
00021b60 00000059
00021b64 00000026
00021b68 ffffffd5
00021b6c ffffffe9
00021b70 ffffffe2
00021b74 ffffffb3
00021b78 ffffffae
00021b7c 00000046
00021b80 00000062
00021b84 ffffff9d
00021b88 0000001d
00021b8c 0000007d
00021b90 00000003
00021b94 00000047
00021b98 ffffffce
00021b9c 00000050
00021ba0 0000007f
00021ba4 00000032
00021ba8 ffffffa8
00021bac 0000006f
00021bb0 0000002c
00021bb4 ffffffd5
00021bb8 ffffffd1
00021bbc ffffffdf
00021bc0 fffffffb
00021bc4 fffffff6
00021bc8 00000059
00021bcc ffffff92
00021bd0 ffffff83
00021bd4 ffffffd3
00021bd8 00000018
00021bdc ffffffb5
00021be0 ffffffa8
00021be4 0000004f
00021be8 ffffffd1
00021bec 00000053
00021bf0 ffffffb7
00021bf4 ffffffc0
00021bf8 00000045
00021bfc 0000006d
00021c00 00000051
00021c04 ffffffdd
00021c08 ffffffd4
00021c0c 00000034
00021c10 00000068
00021c14 00000025
00021c18 00000067
00021c1c 00000060
00021c20 ffffffbd
00021c24 ffffff94
00021c28 0000000c
00021c2c 0000003c
00021c30 fffffff1
00021c34 ffffffbf
00021c38 0000003c
00021c3c 00000056
00021c40 ffffff95
00021c44 00000034
00021c48 ffffffca
00021c4c 0000005c
00021c50 ffffffa0
00021c54 00000031
00021c58 ffffff9e
00021c5c 00000078
00021c60 ffffffb4
00021c64 00000059
00021c68 ffffff85
00021c6c 0000007b
00021c70 ffffffc0
00021c74 00000036
00021c78 ffffffef
00021c7c 0000004e
00021c80 ffffff9a
00021c84 ffffffa1
00021c88 0000003c
00021c8c 00000007
00021c90 0000001e
00021c94 00000034
00021c98 0000007b
00021c9c ffffffe3
00021ca0 00000023
00021ca4 00000055
00021ca8 ffffff8a
00021cac 00000057
00021cb0 ffffff89
00021cb4 0000000c
00021cb8 fffffffe
00021cbc ffffffcb
00021cc0 ffffffde
00021cc4 ffffff99
00021cc8 ffffff82
00021ccc 0000001f
00021cd0 ffffffd1
00021cd4 fffffff9
00021cd8 ffffffc9
00021cdc 00000064
00021ce0 ffffff95
00021ce4 fffffffe
00021ce8 ffffff9f
00021cec ffffffdf
00021cf0 ffffffd4
00021cf4 ffffffb7
00021cf8 0000000d
00021cfc 00000026
00021d00 00000058
00021d04 ffffffec
00021d08 00000004
00021d0c 0000007f
00021d10 00000069
00021d14 00000051
00021d18 0000003c
00021d1c 00000030
00021d20 00000061
00021d24 0000003b
00021d28 ffffffbc
00021d2c ffffffc0
00021d30 00000018
00021d34 00000025
00021d38 00000008
00021d3c ffffff8d
00021d40 ffffffbf
00021d44 ffffffdf
00021d48 00000077
00021d4c 00000076
00021d50 00000035
00021d54 00000068
00021d58 ffffff8a
00021d5c ffffffbb
00021d60 0000006a
00021d64 0000004c
00021d68 00000013
00021d6c ffffffb0
00021d70 ffffffd2
00021d74 fffffff7
00021d78 ffffff9d
00021d7c ffffff8c
00021d80 ffffffe2
00021d84 00000062
00021d88 00000040
00021d8c ffffff9a
00021d90 fffffff6
00021d94 00000076
00021d98 00000030
00021d9c 0000003e
00021da0 fffffff7
00021da4 0000005b
00021da8 00000045
00021dac ffffffe4
00021db0 0000000c
00021db4 00000000
00021db8 ffffffd5
00021dbc ffffffd4
00021dc0 ffffff8b
00021dc4 ffffff86
00021dc8 00000021
00021dcc ffffff81
00021dd0 ffffffeb
00021dd4 00000022
00021dd8 ffffffc8
00021ddc ffffffb1
00021de0 ffffff8f
00021de4 00000024
00021de8 00000021
00021dec 00000030
00021df0 00000001
00021df4 0000001d
00021df8 ffffffb0
00021dfc 0000005e
00021e00 0000000d
00021e04 ffffffde
00021e08 ffffffdd
00021e0c fffffff9
00021e10 00000037
00021e14 ffffffaf
00021e18 00000026
00021e1c ffffff89
00021e20 ffffffc1
00021e24 ffffffef
00021e28 0000000e
00021e2c 0000001e
00021e30 fffffff7
00021e34 ffffffc2
00021e38 0000003a
00021e3c ffffff98
00021e40 ffffff8e
00021e44 ffffffde
00021e48 ffffffc6
00021e4c 00000030
00021e50 ffffff8f
00021e54 0000001b
00021e58 ffffffaf
00021e5c ffffffc2
00021e60 00000025
00021e64 0000000a
00021e68 00000053
00021e6c ffffffd3
00021e70 fffffff6
00021e74 00000014
00021e78 0000000b
00021e7c 00000069
00021e80 fffffff4
00021e84 00000018
00021e88 0000001d
00021e8c ffffffbd
00021e90 ffffff98
00021e94 ffffffe7
00021e98 0000006a
00021e9c ffffffbe
00021ea0 ffffffd6
00021ea4 00000027
00021ea8 ffffffa7
00021eac 0000001d
00021eb0 00000049
00021eb4 0000005b
00021eb8 00000001
00021ebc ffffffe2
00021ec0 0000004a
00021ec4 0000000c
00021ec8 00000006
00021ecc 00000070
00021ed0 00000007
00021ed4 0000007f
00021ed8 0000001b
00021edc ffffffb6
00021ee0 ffffffcb
00021ee4 0000004b
00021ee8 00000074
00021eec ffffff81
00021ef0 0000005c
00021ef4 00000050
00021ef8 ffffffb9
00021efc 00000022
00021f00 0000000c
00021f04 0000004f
00021f08 fffffffa
00021f0c ffffff9e
00021f10 ffffffcc
00021f14 0000005c
00021f18 0000002d
00021f1c ffffffa2
00021f20 ffffffce
00021f24 0000002c
00021f28 ffffffc7
00021f2c 0000002d
00021f30 0000007f
00021f34 ffffff81
00021f38 0000001f
00021f3c 00000061
00021f40 ffffff99
00021f44 00000050
00021f48 ffffffd2
00021f4c 0000005f
00021f50 ffffff86
00021f54 ffffffb1
00021f58 ffffffa6
00021f5c 0000005b
00021f60 ffffff8e
00021f64 0000005d
00021f68 ffffffd2
00021f6c 00000023
00021f70 0000007a
00021f74 ffffffda
00021f78 ffffffe4
00021f7c ffffffc9
00021f80 0000001f
00021f84 00000057
00021f88 ffffffc1
00021f8c 0000007f
00021f90 0000000c
00021f94 00000052
00021f98 ffffff92
00021f9c fffffff1
00021fa0 0000002b
00021fa4 00000066
00021fa8 0000000e
00021fac 00000001
00021fb0 fffffffa
00021fb4 0000001b
00021fb8 0000000f
00021fbc 00000004
00021fc0 00000028
00021fc4 00000064
00021fc8 00000045
00021fcc 00000046
00021fd0 0000006c
00021fd4 00000029
00021fd8 ffffff8e
00021fdc 00000068
00021fe0 ffffffde
00021fe4 ffffffae
00021fe8 00000032
00021fec ffffff95
00021ff0 ffffffc1
00021ff4 0000007f
00021ff8 00000030
00021ffc ffffffd4
00022000 ffffffc7
00022004 00000058
00022008 fffffff2
0002200c 0000000c
00022010 00000051
00022014 ffffffac
00022018 0000006d
0002201c ffffffbc
00022020 00000047
00022024 00000065
00022028 0000006a
0002202c ffffffc1
00022030 00000005
00022034 00000009
00022038 0000003f
0002203c ffffff88
00022040 0000000c
00022044 00000022
00022048 00000069
0002204c 0000004f
00022050 ffffffc9
00022054 00000066
00022058 ffffffdf
0002205c 00000067
00022060 ffffffcb
00022064 00000021
00022068 ffffffb1
0002206c fffffff8
00022070 ffffffae
00022074 00000048
00022078 00000055
0002207c ffffffbb
00022080 00000008
00022084 0000006b
00022088 0000004d
0002208c fffffff7
00022090 fffffffd
00022094 00000011
00022098 fffffffd
0002209c ffffffd3
000220a0 ffffffcf
000220a4 ffffffcd
000220a8 ffffffb8
000220ac 00000002
000220b0 0000000f
000220b4 ffffffa2
000220b8 fffffff5
000220bc 0000000f
000220c0 ffffffb4
000220c4 00000048
000220c8 00000079
000220cc 00000002
000220d0 ffffff95
000220d4 00000043
000220d8 00000029
000220dc 00000031
000220e0 00000008
000220e4 00000038
000220e8 00000035
000220ec ffffffbb
000220f0 fffffffd
000220f4 00000046
000220f8 00000061
000220fc ffffffee
00022100 00000022
00022104 00000011
00022108 fffffff4
0002210c ffffff83
00022110 ffffffff
00022114 fffffffb
00022118 ffffffdd
0002211c 00000065
00022120 0000003f
00022124 ffffff9c
00022128 ffffffe5
0002212c 0000006e
00022130 00000072
00022134 ffffffb4
00022138 ffffffa1
0002213c ffffffdb
00022140 0000005b
00022144 0000006b
00022148 0000005f
0002214c 00000022
00022150 ffffff9e
00022154 ffffff8f
00022158 ffffffef
0002215c ffffffee
00022160 00000047
00022164 ffffff95
00022168 00000050
0002216c 00000059
00022170 ffffffad
00022174 0000002b
00022178 fffffff5
0002217c 00000032
00022180 00000033
00022184 ffffffea
00022188 0000003a
0002218c fffffff2
00022190 ffffff9f
00022194 00000003
00022198 00000010
0002219c 00000001
000221a0 0000006f
000221a4 00000000
000221a8 ffffffe0
000221ac 00000032
000221b0 00000010
000221b4 00000076
000221b8 fffffffa
000221bc 00000036
000221c0 fffffffd
000221c4 0000001e
000221c8 ffffffeb
000221cc 00000067
000221d0 00000051
000221d4 0000007a
000221d8 0000000f
000221dc ffffffcf
000221e0 fffffff1
000221e4 00000029
000221e8 00000000
000221ec 00000005
000221f0 ffffffeb
000221f4 ffffffde
000221f8 0000007e
000221fc 00000050
00022200 00000007
00022204 00000043
00022208 00000065
0002220c ffffffb0
00022210 ffffffcd
00022214 00000044
00022218 ffffffec
0002221c 0000004e
00022220 ffffffa2
00022224 00000015
00022228 ffffff84
0002222c 0000004c
00022230 ffffffb6
00022234 0000006b
00022238 fffffff4
0002223c ffffffd2
00022240 fffffffa
00022244 ffffffc4
00022248 0000004b
0002224c 0000004c
00022250 00000073
00022254 ffffff8f
00022258 00000008
0002225c 0000000e
00022260 0000003f
00022264 ffffffb5
00022268 00000009
0002226c ffffff93
00022270 00000006
00022274 0000001d
00022278 ffffffae
0002227c 00000026
00022280 ffffffd7
00022284 00000015
00022288 ffffffa1
0002228c 00000023
00022290 ffffffe6
00022294 ffffff8b
00022298 0000002d
0002229c 00000061
000222a0 ffffff9d
000222a4 ffffffeb
000222a8 0000000b
000222ac ffffff9e
000222b0 00000036
000222b4 0000001d
000222b8 00000060
000222bc fffffffc
000222c0 00000013
000222c4 00000020
000222c8 0000005d
000222cc ffffffed
000222d0 ffffffb4
000222d4 0000002a
000222d8 0000005f
000222dc 00000016
000222e0 00000074
000222e4 ffffffe3
000222e8 ffffff94
000222ec ffffffc6
000222f0 ffffffce
000222f4 0000001e
000222f8 ffffffa4
000222fc 00000040
00022300 ffffffad
00022304 ffffff99
00022308 00000036
0002230c ffffff83
00022310 ffffffd2
00022314 ffffffe9
00022318 ffffffc5
0002231c ffffffdb
00022320 00000073
00022324 00000010
00022328 ffffff9b
0002232c ffffffc9
00022330 0000000f
00022334 0000006f
00022338 00000020
0002233c 00000077
00022340 ffffffcb
00022344 ffffffa7
00022348 ffffffbe
0002234c ffffff8d
00022350 ffffffda
00022354 ffffffb9
00022358 0000002e
0002235c ffffffc9
00022360 0000006c
00022364 00000006
00022368 0000003a
0002236c 00000069
00022370 ffffffd4
00022374 ffffffd3
00022378 00000020
0002237c 00000055
00022380 0000007b
00022384 00000022
00022388 ffffff9e
0002238c 00000031
00022390 ffffffeb
00022394 ffffffdf
00022398 00000040
0002239c 00000077
000223a0 0000007f
000223a4 ffffffbb
000223a8 ffffff87
000223ac ffffffd0
000223b0 0000001f
000223b4 fffffffd
000223b8 00000068
000223bc ffffffc7
000223c0 ffffff90
000223c4 00000029
000223c8 ffffffd6
000223cc ffffff80
000223d0 ffffffbd
000223d4 ffffffb0
000223d8 ffffffa5
000223dc ffffffb0
000223e0 00000053
000223e4 0000000d
000223e8 0000004f
000223ec 0000004c
000223f0 ffffffb8
000223f4 ffffffee
000223f8 00000067
000223fc ffffffa1
00022400 00000077
00022404 00000078
00022408 ffffffd9
0002240c 00000069
00022410 ffffffa2
00022414 ffffffa2
00022418 ffffffac
0002241c 00000045
00022420 ffffff84
00022424 ffffff9c
00022428 ffffffe1
0002242c ffffffbd
00022430 0000000a
00022434 ffffffc7
00022438 ffffff85
0002243c ffffffc4
00022440 ffffff96
00022444 ffffffb4
00022448 00000018
0002244c ffffffb3
00022450 ffffff8a
00022454 00000043
00022458 ffffffd8
0002245c ffffff9b
00022460 00000033
00022464 00000061
00022468 0000001b
0002246c ffffffe2
00022470 ffffff9a
00022474 ffffff9f
00022478 00000049
0002247c ffffffb6
00022480 ffffff96
00022484 0000004e
00022488 fffffffe
0002248c ffffff90
00022490 ffffffd8
00022494 00000020
00022498 ffffffc6
0002249c 00000019
000224a0 ffffff9d
000224a4 00000034
000224a8 0000007e
000224ac 00000034
000224b0 00000025
000224b4 ffffff8f
000224b8 ffffff8d
000224bc ffffffa2
000224c0 ffffff82
000224c4 fffffffa
000224c8 ffffff84
000224cc ffffff83
000224d0 0000001a
000224d4 00000045
000224d8 00000071
000224dc 00000005
000224e0 ffffffb7
000224e4 0000005d
000224e8 ffffff8e
000224ec 00000036
000224f0 ffffffb4
000224f4 ffffff9f
000224f8 0000005b
000224fc ffffffab
00022500 ffffffba
00022504 00000013
00022508 00000016
0002250c ffffffd7
00022510 00000005
00022514 00000021
00022518 ffffffe2
0002251c ffffffe7
00022520 ffffffbc
00022524 ffffff89
00022528 fffffff6
0002252c 0000000c
00022530 ffffffac
00022534 ffffffbb
00022538 0000007b
0002253c 00000063
00022540 ffffff97
00022544 fffffffb
00022548 ffffffd0
0002254c 00000014
00022550 0000004e
00022554 0000000e
00022558 ffffffda
0002255c ffffffe5
00022560 00000015
00022564 00000008
00022568 0000001a
0002256c ffffff98
00022570 ffffff8e
00022574 ffffffb4
00022578 00000037
0002257c ffffffc4
00022580 0000000b
00022584 fffffff5
00022588 ffffffb6
0002258c 0000002f
00022590 ffffff9f
00022594 00000026
00022598 ffffffc7
0002259c ffffffa1
000225a0 00000045
000225a4 ffffffba
000225a8 00000014
000225ac 00000027
000225b0 00000023
000225b4 ffffffb8
000225b8 fffffffa
000225bc ffffffbd
000225c0 fffffffe
000225c4 00000059
000225c8 ffffff9c
000225cc 00000040
000225d0 0000001e
000225d4 00000057
000225d8 ffffffbf
000225dc 00000043
000225e0 ffffffe2
000225e4 00000055
000225e8 0000000e
000225ec ffffffac
000225f0 ffffffb0
000225f4 00000059
000225f8 ffffffa7
000225fc 0000002e
00022600 fffffffe
00022604 00000008
00022608 00000058
0002260c ffffffc1
00022610 ffffff8e
00022614 00000016
00022618 00000035
0002261c ffffffb4
00022620 ffffffa2
00022624 ffffff9b
00022628 ffffffe1
0002262c ffffffce
00022630 00000000
00022634 ffffffe1
00022638 ffffffb5
0002263c 0000004b
00022640 00000016
00022644 ffffff8f
00022648 00000042
0002264c 00000046
00022650 00000069
00022654 ffffffa0
00022658 ffffff98
0002265c 00000026
00022660 ffffffd2
00022664 ffffff96
00022668 ffffffb8
0002266c 00000042
00022670 ffffffe2
00022674 ffffffbf
00022678 ffffffbc
0002267c 0000005c
00022680 ffffffa8
00022684 ffffff86
00022688 ffffff97
0002268c ffffffb2
00022690 ffffffc4
00022694 00000014
00022698 ffffffb0
0002269c 0000003d
000226a0 00000002
000226a4 0000000e
000226a8 00000019
000226ac 00000068
000226b0 ffffffb3
000226b4 ffffffd4
000226b8 00000078
000226bc ffffff83
000226c0 ffffffcc
000226c4 00000021
000226c8 ffffffbf
000226cc 00000015
000226d0 0000007d
000226d4 ffffffad
000226d8 00000077
000226dc 00000026
000226e0 ffffff95
000226e4 ffffffdb
000226e8 ffffffbd
000226ec ffffffc1
000226f0 ffffffba
000226f4 fffffffb
000226f8 0000003f
000226fc ffffffd2
00022700 ffffffe9
00022704 ffffff98
00022708 ffffffff
0002270c ffffffe5
00022710 00000045
00022714 00000050
00022718 ffffffdc
0002271c ffffffd6
00022720 ffffff80
00022724 ffffffbc
00022728 ffffffa4
0002272c ffffffc4
00022730 ffffffa4
00022734 ffffffe8
00022738 0000001a
0002273c 00000011
00022740 ffffffdd
00022744 fffffff7
00022748 ffffffc0
0002274c 00000037
00022750 ffffff96
00022754 ffffff88
00022758 00000073
0002275c 00000037
00022760 0000005d
00022764 ffffff8e
00022768 0000004b
0002276c 00000077
00022770 ffffffbb
00022774 ffffffbe
00022778 ffffffdc
0002277c 0000001b
00022780 00000046
00022784 ffffffad
00022788 ffffffdb
0002278c ffffffac
00022790 0000006a
00022794 0000002c
00022798 0000005a
0002279c 00000004
000227a0 00000060
000227a4 ffffffdd
000227a8 00000030
000227ac ffffff87
000227b0 fffffff8
000227b4 00000018
000227b8 00000016
000227bc ffffff84
000227c0 ffffff9b
000227c4 00000001
000227c8 0000006c
000227cc 0000001c
000227d0 ffffffc6
000227d4 ffffffcd
000227d8 0000004f
000227dc 0000005d
000227e0 00000042
000227e4 ffffffea
000227e8 0000003c
000227ec 00000007
000227f0 ffffffef
000227f4 ffffffeb
000227f8 00000015
000227fc ffffffbd
00022800 ffffffd8
00022804 0000004b
00022808 ffffff83
0002280c ffffffd7
00022810 00000064
00022814 ffffffcc
00022818 0000002a
0002281c 00000033
00022820 fffffff1
00022824 00000003
00022828 00000023
0002282c 0000006b
00022830 00000005
00022834 ffffffd3
00022838 0000005a
0002283c ffffffd3
00022840 0000004c
00022844 fffffff2
00022848 00000056
0002284c ffffffdc
00022850 ffffffb4
00022854 fffffff7
00022858 00000023
0002285c ffffff87
00022860 0000002e
00022864 00000015
00022868 ffffffda
0002286c ffffffd3
00022870 00000070
00022874 0000003d
00022878 ffffffe2
0002287c 00000059
00022880 0000003d
00022884 ffffffd3
00022888 00000036
0002288c 00000039
00022890 00000012
00022894 0000004c
00022898 00000061
0002289c 00000003
000228a0 00000074
000228a4 0000004c
000228a8 fffffffa
000228ac 0000001b
000228b0 ffffff8f
000228b4 0000003e
000228b8 00000006
000228bc 00000032
000228c0 ffffffa9
000228c4 00000020
000228c8 00000078
000228cc ffffff8f
000228d0 ffffff9b
000228d4 00000020
000228d8 00000046
000228dc 00000029
000228e0 fffffffc
000228e4 ffffffd5
000228e8 ffffff9d
000228ec 00000030
000228f0 0000003a
000228f4 ffffffa6
000228f8 00000060
000228fc 0000001e
00022900 00000059
00022904 ffffffd7
00022908 00000056
0002290c ffffffbe
00022910 00000003
00022914 0000006c
00022918 fffffffd
0002291c 00000036
00022920 ffffffe9
00022924 ffffff94
00022928 0000006f
0002292c 00000066
00022930 fffffff8
00022934 0000003d
00022938 ffffffc1
0002293c ffffff92
00022940 ffffffc0
00022944 fffffff8
00022948 00000039
0002294c 0000003e
00022950 ffffffe1
00022954 ffffffff
00022958 00000008
0002295c ffffff8c
00022960 0000002a
00022964 ffffffbb
00022968 ffffffb2
0002296c ffffffb9
00022970 00000072
00022974 ffffffd2
00022978 ffffff86
0002297c ffffff9c
00022980 0000006a
00022984 00000041
00022988 0000000e
0002298c 00000026
00022990 00000034
00022994 ffffffdf
00022998 00000028
0002299c ffffffcb
000229a0 00000002
000229a4 0000000b
000229a8 0000002a
000229ac ffffffac
000229b0 0000007b
000229b4 00000050
000229b8 0000005e
000229bc ffffffdd
000229c0 fffffff8
000229c4 ffffffb3
000229c8 00000064
000229cc 0000001d
000229d0 ffffffc6
000229d4 0000005c
000229d8 ffffffd0
000229dc ffffff8f
000229e0 ffffff87
000229e4 fffffff5
000229e8 ffffff80
000229ec 00000011
000229f0 ffffffed
000229f4 00000048
000229f8 ffffff8b
000229fc ffffffbc
00022a00 ffffffbc
00022a04 ffffffc5
00022a08 ffffffe7
00022a0c 00000034
00022a10 00000021
00022a14 00000051
00022a18 00000026
00022a1c fffffffb
00022a20 0000000f
00022a24 ffffffde
00022a28 0000004c
00022a2c ffffffaf
00022a30 00000009
00022a34 ffffff99
00022a38 ffffff88
00022a3c 0000004a
00022a40 0000003b
00022a44 00000017
00022a48 ffffffd5
00022a4c ffffffda
00022a50 ffffff85
00022a54 0000000c
00022a58 ffffffa4
00022a5c 00000057
00022a60 ffffffa6
00022a64 0000006e
00022a68 ffffff8b
00022a6c ffffff94
00022a70 00000067
00022a74 ffffffec
00022a78 ffffff8a
00022a7c 00000068
00022a80 ffffffe1
00022a84 ffffffab
00022a88 00000019
00022a8c 00000053
00022a90 0000007d
00022a94 00000056
00022a98 ffffff93
00022a9c 0000006d
00022aa0 00000029
00022aa4 00000014
00022aa8 ffffffd6
00022aac ffffffaa
00022ab0 0000004e
00022ab4 ffffffe9
00022ab8 ffffffe3
00022abc 0000007f
00022ac0 00000010
00022ac4 ffffff85
00022ac8 ffffff9c
00022acc 00000072
00022ad0 ffffffe9
00022ad4 00000011
00022ad8 00000042
00022adc ffffffe9
00022ae0 00000029
00022ae4 00000051
00022ae8 ffffffe3
00022aec 00000000
00022af0 ffffff89
00022af4 ffffffd4
00022af8 ffffff87
00022afc 0000000d
00022b00 00000062
00022b04 fffffff0
00022b08 ffffffe5
00022b0c fffffff4
00022b10 00000022
00022b14 00000061
00022b18 00000076
00022b1c ffffff9c
00022b20 00000039
00022b24 ffffffce
00022b28 ffffffdf
00022b2c 0000005a
00022b30 0000005f
00022b34 ffffffe5
00022b38 00000067
00022b3c ffffffb3
00022b40 00000043
00022b44 fffffffb
00022b48 ffffffa2
00022b4c 00000041
00022b50 0000002c
00022b54 0000000c
00022b58 ffffff95
00022b5c 00000037
00022b60 0000001c
00022b64 ffffff82
00022b68 ffffffe8
00022b6c 00000050
00022b70 ffffffea
00022b74 00000007
00022b78 00000005
00022b7c 0000001c
00022b80 0000004c
00022b84 00000003
00022b88 ffffff84
00022b8c 00000066
00022b90 ffffff8a
00022b94 0000001c
00022b98 0000004b
00022b9c 00000044
00022ba0 00000055
00022ba4 ffffffcc
00022ba8 ffffffad
00022bac ffffffe5
00022bb0 0000005d
00022bb4 0000007b
00022bb8 ffffff8e
00022bbc ffffffc9
00022bc0 ffffffae
00022bc4 00000044
00022bc8 00000079
00022bcc ffffffbe
00022bd0 fffffff9
00022bd4 00000035
00022bd8 ffffffa5
00022bdc 0000001c
00022be0 ffffffea
00022be4 00000056
00022be8 0000005f
00022bec ffffffde
00022bf0 0000007c
00022bf4 00000041
00022bf8 00000037
00022bfc 0000006b
00022c00 00000055
00022c04 ffffff8a
00022c08 00000014
00022c0c 00000002
00022c10 ffffffe1
00022c14 fffffff7
00022c18 0000003c
00022c1c ffffffbb
00022c20 00000078
00022c24 0000007b
00022c28 ffffffa8
00022c2c 00000058
00022c30 ffffff94
00022c34 ffffff8d
00022c38 00000042
00022c3c 00000077
00022c40 00000075
00022c44 ffffff9e
00022c48 fffffff3
00022c4c ffffffac
00022c50 0000006c
00022c54 ffffffbe
00022c58 ffffff9a
00022c5c ffffff90
00022c60 ffffffb6
00022c64 00000032
00022c68 fffffffd
00022c6c 00000078
00022c70 00000068
00022c74 ffffffc8
00022c78 ffffffb5
00022c7c 00000057
00022c80 00000012
00022c84 0000000f
00022c88 ffffffe9
00022c8c ffffffd8
00022c90 ffffff8d
00022c94 ffffffb5
00022c98 00000075
00022c9c ffffffb0
00022ca0 ffffffd5
00022ca4 ffffff83
00022ca8 0000004f
00022cac 00000041
00022cb0 ffffffad
00022cb4 00000008
00022cb8 0000006e
00022cbc ffffffbc
00022cc0 0000003e
00022cc4 fffffff4
00022cc8 0000004f
00022ccc 00000014
00022cd0 0000002a
00022cd4 00000019
00022cd8 ffffff85
00022cdc 00000025
00022ce0 0000003d
00022ce4 00000046
00022ce8 ffffffcd
00022cec 0000007d
00022cf0 0000001a
00022cf4 ffffffda
00022cf8 ffffffa0
00022cfc 00000062
00022d00 ffffffd5
00022d04 fffffff5
00022d08 00000013
00022d0c 00000053
00022d10 ffffff89
00022d14 00000005
00022d18 ffffffdc
00022d1c 00000039
00022d20 0000005f
00022d24 00000070
00022d28 fffffffa
00022d2c ffffffc7
00022d30 ffffffc8
00022d34 ffffffc3
00022d38 ffffffc4
00022d3c 0000004e
00022d40 ffffffbd
00022d44 ffffffe0
00022d48 ffffffe8
00022d4c ffffffdb
00022d50 ffffffd4
00022d54 0000002e
00022d58 00000070
00022d5c 0000000f
00022d60 fffffffe
00022d64 00000079
00022d68 fffffffd
00022d6c ffffff87
00022d70 00000037
00022d74 00000033
00022d78 ffffffcc
00022d7c 00000070
00022d80 00000070
00022d84 00000021
00022d88 ffffffaf
00022d8c ffffffa8
00022d90 00000074
00022d94 ffffffb0
00022d98 0000005c
00022d9c 00000004
00022da0 ffffff82
00022da4 00000040
00022da8 fffffffe
00022dac 00000065
00022db0 ffffffc3
00022db4 00000047
00022db8 ffffffc6
00022dbc ffffff9d
00022dc0 ffffffea
00022dc4 00000018
00022dc8 00000037
00022dcc 0000007b
00022dd0 ffffff89
00022dd4 ffffff8a
00022dd8 00000066
00022ddc 00000013
00022de0 00000001
00022de4 0000007b
00022de8 ffffffd4
00022dec 00000063
00022df0 ffffffb0
00022df4 00000062
00022df8 ffffffb9
00022dfc ffffff8b
00022e00 0000006a
00022e04 ffffffd7
00022e08 00000007
00022e0c fffffff0
00022e10 ffffffaa
00022e14 00000001
00022e18 0000006f
00022e1c ffffffc1
00022e20 00000068
00022e24 ffffff94
00022e28 fffffffa
00022e2c 0000006e
00022e30 ffffff8d
00022e34 0000007a
00022e38 0000007b
00022e3c 00000014
00022e40 00000071
00022e44 ffffffe5
00022e48 ffffff85
00022e4c ffffffa3
00022e50 ffffffb3
00022e54 00000007
00022e58 0000006f
00022e5c ffffffb3
00022e60 fffffff6
00022e64 0000004e
00022e68 ffffffd6
00022e6c 0000002d
00022e70 00000065
00022e74 00000046
00022e78 ffffffc9
00022e7c fffffff7
00022e80 00000072
00022e84 ffffff8f
00022e88 ffffffa9
00022e8c ffffffda
00022e90 ffffffa4
00022e94 0000006e
00022e98 ffffffab
00022e9c ffffffab
00022ea0 ffffff8c
00022ea4 ffffff85
00022ea8 00000005
00022eac ffffffd5
00022eb0 ffffffff
00022eb4 ffffff8a
00022eb8 00000055
00022ebc ffffffc1
00022ec0 00000040
00022ec4 00000022
00022ec8 00000027
00022ecc fffffff9
00022ed0 ffffffec
00022ed4 ffffffad
00022ed8 00000064
00022edc 00000073
00022ee0 00000072
00022ee4 00000075
00022ee8 00000032
00022eec 00000073
00022ef0 ffffffff
00022ef4 00000051
00022ef8 00000070
00022efc ffffffac
00022f00 00000003
00022f04 00000044
00022f08 ffffff89
00022f0c ffffffc9
00022f10 0000007c
00022f14 ffffffce
00022f18 00000047
00022f1c 00000061
00022f20 00000024
00022f24 fffffff5
00022f28 00000056
00022f2c ffffffd9
00022f30 ffffff96
00022f34 0000004b
00022f38 00000036
00022f3c ffffff91
00022f40 ffffffc3
00022f44 ffffffba
00022f48 fffffffa
00022f4c 00000041
00022f50 ffffff89
00022f54 ffffffe8
00022f58 0000000a
00022f5c ffffff81
00022f60 ffffffd3
00022f64 0000007d
00022f68 0000000b
00022f6c ffffffd9
00022f70 ffffff97
00022f74 0000001e
00022f78 ffffffff
00022f7c ffffffff
00022f80 00000055
00022f84 0000000e
00022f88 ffffffbd
00022f8c ffffffc3
00022f90 ffffffe8
00022f94 00000022
00022f98 ffffffaa
00022f9c 00000029
00022fa0 00000031
00022fa4 00000018
00022fa8 00000046
00022fac 00000019
00022fb0 00000028
00022fb4 ffffff94
00022fb8 ffffff95
00022fbc 00000033
00022fc0 00000039
00022fc4 ffffff9f
00022fc8 00000058
00022fcc fffffff4
00022fd0 00000029
00022fd4 00000030
00022fd8 0000001a
00022fdc 00000015
00022fe0 00000046
00022fe4 ffffffcb
00022fe8 00000004
00022fec 00000024
00022ff0 0000004e
00022ff4 0000002c
00022ff8 00000042
00022ffc 00000019
00023000 00000027
00023004 00000029
00023008 ffffff83
0002300c 0000004d
00023010 ffffffa9
00023014 ffffffd6
00023018 ffffff8e
0002301c 0000001a
00023020 00000004
00023024 00000036
00023028 ffffffe3
0002302c ffffffdb
00023030 0000007b
00023034 ffffffb6
00023038 ffffffd4
0002303c fffffff5
00023040 ffffffe6
00023044 ffffff8f
00023048 0000004b
0002304c 00000033
00023050 ffffff86
00023054 ffffffc3
00023058 0000003e
0002305c ffffffeb
00023060 ffffffe4
00023064 0000002a
00023068 0000003d
0002306c ffffffa4
00023070 00000019
00023074 ffffff89
00023078 00000056
0002307c ffffffc4
00023080 00000002
00023084 ffffffc9
00023088 00000041
0002308c 00000004
00023090 ffffffc3
00023094 00000063
00023098 ffffffbc
0002309c 00000047
000230a0 ffffff95
000230a4 0000003f
000230a8 00000060
000230ac 0000000b
000230b0 ffffff95
000230b4 00000027
000230b8 0000003c
000230bc fffffff7
000230c0 00000010
000230c4 00000033
000230c8 0000002b
000230cc ffffff85
000230d0 ffffffff
000230d4 ffffff8b
000230d8 0000000a
000230dc ffffffdb
000230e0 00000035
000230e4 ffffffb6
000230e8 ffffff9d
000230ec ffffffde
000230f0 00000069
000230f4 00000019
000230f8 0000003b
000230fc ffffff80
00023100 ffffffcc
00023104 00000039
00023108 0000007e
0002310c 00000079
00023110 ffffffea
00023114 ffffffa4
00023118 00000033
0002311c 0000006f
00023120 ffffffb5
00023124 ffffffa0
00023128 00000078
0002312c ffffff9e
00023130 0000007c
00023134 ffffffbf
00023138 ffffff85
0002313c 0000006b
00023140 ffffff8a
00023144 ffffffc5
00023148 0000003b
0002314c 00000025
00023150 00000000
00023154 0000004b
00023158 ffffffdd
0002315c ffffff91
00023160 00000009
00023164 0000006f
00023168 0000005e
0002316c 00000060
00023170 ffffff83
00023174 00000019
00023178 00000011
0002317c 0000007c
00023180 00000066
00023184 0000004b
00023188 ffffff87
0002318c ffffff96
00023190 00000042
00023194 fffffffd
00023198 00000005
0002319c 00000034
000231a0 0000000a
000231a4 ffffffa1
000231a8 00000027
000231ac 00000037
000231b0 00000026
000231b4 00000067
000231b8 00000048
000231bc 00000043
000231c0 ffffffd8
000231c4 ffffff8e
000231c8 fffffffb
000231cc 00000039
000231d0 ffffffc4
000231d4 ffffff8f
000231d8 ffffffcc
000231dc 00000024
000231e0 fffffff8
000231e4 ffffffce
000231e8 00000022
000231ec ffffff9a
000231f0 00000031
000231f4 fffffff8
000231f8 ffffff86
000231fc fffffffd
00023200 ffffff93
00023204 ffffffc1
00023208 ffffff9a
0002320c 0000003e
00023210 ffffffd8
00023214 00000046
00023218 ffffffd3
0002321c 0000003b
00023220 ffffff8b
00023224 00000060
00023228 00000078
0002322c 0000006e
00023230 00000057
00023234 00000077
00023238 00000079
0002323c 00000019
00023240 ffffffeb
00023244 0000007b
00023248 00000036
0002324c 00000006
00023250 00000030
00023254 ffffffe6
00023258 00000062
0002325c 0000006b
00023260 00000019
00023264 00000045
00023268 ffffff88
0002326c fffffffd
00023270 00000048
00023274 0000001b
00023278 ffffff85
0002327c ffffffa7
00023280 0000001d
00023284 00000032
00023288 00000070
0002328c ffffff8e
00023290 00000004
00023294 ffffffa5
00023298 ffffff82
0002329c ffffff84
000232a0 0000006b
000232a4 0000007d
000232a8 ffffffd9
000232ac 00000009
000232b0 ffffffd8
000232b4 0000007e
000232b8 ffffffc2
000232bc 0000001f
000232c0 0000006a
000232c4 ffffffb0
000232c8 00000068
000232cc ffffffb8
000232d0 ffffffac
000232d4 00000070
000232d8 00000022
000232dc 00000021
000232e0 ffffff90
000232e4 ffffffdc
000232e8 0000005d
000232ec 0000005e
000232f0 fffffffa
000232f4 ffffff83
000232f8 00000024
000232fc 0000000a
00023300 ffffffa0
00023304 ffffff87
00023308 ffffff82
0002330c ffffffa4
00023310 ffffff82
00023314 00000039
00023318 00000028
0002331c 0000005f
00023320 ffffffb5
00023324 0000007d
00023328 ffffffd5
0002332c ffffffd5
00023330 00000063
00023334 00000048
00023338 fffffff9
0002333c ffffffdb
00023340 ffffff82
00023344 ffffffb2
00023348 00000042
0002334c ffffff82
00023350 ffffff84
00023354 0000001d
00023358 0000004d
0002335c ffffffef
00023360 fffffff2
00023364 0000006c
00023368 00000029
0002336c ffffff8b
00023370 00000079
00023374 ffffffab
00023378 ffffffea
0002337c 00000049
00023380 ffffffe7
00023384 0000004a
00023388 00000031
0002338c 0000000a
00023390 ffffffa6
00023394 00000033
00023398 00000069
0002339c 00000071
000233a0 ffffff85
000233a4 fffffffc
000233a8 ffffff98
000233ac 00000079
000233b0 0000007b
000233b4 ffffff98
000233b8 ffffffdc
000233bc ffffffd8
000233c0 ffffffe0
000233c4 0000003b
000233c8 0000004d
000233cc ffffff95
000233d0 ffffff9e
000233d4 ffffffcd
000233d8 ffffffea
000233dc 00000059
000233e0 00000077
000233e4 ffffffe8
000233e8 0000000e
000233ec ffffffa6
000233f0 00000023
000233f4 ffffff81
000233f8 ffffffbc
000233fc ffffffe4
00023400 fffffff8
00023404 ffffffe3
00023408 ffffffd6
0002340c ffffff8d
00023410 00000074
00023414 ffffff91
00023418 00000058
0002341c ffffff89
00023420 00000060
00023424 00000003
00023428 fffffffb
0002342c 00000070
00023430 ffffff8c
00023434 ffffffef
00023438 ffffffa8
0002343c 0000007b
00023440 00000054
00023444 0000006b
00023448 ffffff96
0002344c ffffffdf
00023450 ffffffda
00023454 ffffff8d
00023458 ffffffe9
0002345c ffffff83
00023460 00000040
00023464 00000007
00023468 ffffffd7
0002346c 0000000f
00023470 ffffffe9
00023474 0000003d
00023478 00000001
0002347c fffffff0
00023480 ffffffad
00023484 0000001f
00023488 ffffffb6
0002348c ffffffec
00023490 0000002e
00023494 0000006c
00023498 0000001e
0002349c 00000008
000234a0 ffffff94
000234a4 ffffffec
000234a8 ffffffed
000234ac 00000009
000234b0 00000034
000234b4 ffffffe3
000234b8 ffffff81
000234bc ffffff97
000234c0 0000003f
000234c4 ffffffbf
000234c8 ffffff99
000234cc 00000068
000234d0 fffffff9
000234d4 00000043
000234d8 ffffff85
000234dc 00000006
000234e0 ffffffb5
000234e4 00000037
000234e8 ffffff8f
000234ec 00000064
000234f0 00000029
000234f4 0000002d
000234f8 0000006e
000234fc ffffff8d
00023500 0000001d
00023504 ffffff83
00023508 ffffffdc
0002350c ffffffcf
00023510 00000002
00023514 ffffffaa
00023518 ffffffac
0002351c 00000069
00023520 00000079
00023524 0000004e
00023528 ffffff8d
0002352c ffffffdc
00023530 ffffff82
00023534 ffffffda
00023538 0000005a
0002353c ffffffec
00023540 00000006
00023544 ffffffc9
00023548 00000019
0002354c 00000002
00023550 ffffffa3
00023554 00000025
00023558 00000041
0002355c fffffffa
00023560 ffffffaa
00023564 00000073
00023568 00000009
0002356c ffffffe9
00023570 00000056
00023574 ffffffe3
00023578 ffffffed
0002357c ffffffc2
00023580 ffffff82
00023584 00000053
00023588 00000061
0002358c 0000000c
00023590 ffffffb1
00023594 fffffff3
00023598 ffffffa3
0002359c ffffff95
000235a0 00000048
000235a4 00000031
000235a8 0000006f
000235ac 0000001d
000235b0 ffffffa9
000235b4 ffffffdf
000235b8 0000001d
000235bc 00000034
000235c0 ffffffed
000235c4 ffffffc2
000235c8 ffffffbc
000235cc ffffff93
000235d0 0000005b
000235d4 0000004f
000235d8 ffffffb1
000235dc ffffffdb
000235e0 ffffff91
000235e4 0000001e
000235e8 00000017
000235ec 00000033
000235f0 00000019
000235f4 ffffffe9
000235f8 0000005f
000235fc ffffffca
00023600 fffffff3
00023604 00000026
00023608 ffffffa9
0002360c ffffff9d
00023610 00000040
00023614 ffffff8f
00023618 fffffffa
0002361c ffffff86
00023620 00000057
00023624 ffffffda
00023628 00000042
0002362c ffffffd0
00023630 00000042
00023634 00000023
00023638 ffffffa6
0002363c ffffffb2
00023640 ffffffb5
00023644 00000055
00023648 ffffffc9
0002364c ffffffee
00023650 0000006b
00023654 00000025
00023658 0000003f
0002365c ffffffea
00023660 ffffffb0
00023664 0000000c
00023668 0000007f
0002366c 00000033
00023670 ffffffa7
00023674 fffffff4
00023678 ffffffc0
0002367c ffffff88
00023680 00000000
00023684 00000036
00023688 00000029
0002368c 0000005c
00023690 00000025
00023694 0000000b
00023698 00000032
0002369c 0000005d
000236a0 ffffffef
000236a4 00000022
000236a8 0000007c
000236ac 00000037
000236b0 ffffffa5
000236b4 00000075
000236b8 00000028
000236bc 0000003f
000236c0 ffffffff
000236c4 ffffffd3
000236c8 0000000c
000236cc 00000023
000236d0 0000004a
000236d4 00000071
000236d8 ffffffe7
000236dc 0000006b
000236e0 ffffffeb
000236e4 00000052
000236e8 ffffff91
000236ec ffffff8b
000236f0 0000000c
000236f4 0000005f
000236f8 ffffff86
000236fc 00000031
00023700 00000003
00023704 0000007c
00023708 0000006d
0002370c ffffffe2
00023710 ffffff95
00023714 00000027
00023718 00000029
0002371c ffffffb5
00023720 ffffffcc
00023724 00000065
00023728 ffffffbc
0002372c ffffffbe
00023730 ffffff81
00023734 ffffff8d
00023738 ffffffbd
0002373c ffffff8b
00023740 fffffff0
00023744 fffffff1
00023748 ffffffcd
0002374c ffffffd5
00023750 00000057
00023754 ffffff96
00023758 00000063
0002375c 00000059
00023760 ffffffd8
00023764 ffffff92
00023768 0000003d
0002376c ffffffc3
00023770 ffffffd4
00023774 0000000a
00023778 00000019
0002377c fffffffe
00023780 ffffffa5
00023784 00000021
00023788 ffffff90
0002378c 00000000
00023790 ffffffa3
00023794 00000022
00023798 0000003d
0002379c 0000004f
000237a0 00000077
000237a4 00000014
000237a8 0000002e
000237ac ffffff85
000237b0 fffffff2
000237b4 0000002b
000237b8 0000005f
000237bc 00000040
000237c0 ffffff91
000237c4 00000050
000237c8 00000033
000237cc ffffffae
000237d0 ffffff99
000237d4 ffffff9a
000237d8 ffffffe2
000237dc 0000006b
000237e0 ffffffd0
000237e4 ffffff9e
000237e8 fffffff8
000237ec 0000002f
000237f0 00000009
000237f4 00000069
000237f8 00000054
000237fc ffffffcf
00023800 00000024
00023804 ffffffa5
00023808 00000042
0002380c 00000064
00023810 ffffff96
00023814 00000038
00023818 00000037
0002381c ffffffff
00023820 00000050
00023824 0000006c
00023828 0000000c
0002382c 00000072
00023830 ffffff8d
00023834 00000056
00023838 ffffffb8
0002383c 0000004a
00023840 00000012
00023844 00000018
00023848 0000002a
0002384c ffffffdb
00023850 00000017
00023854 00000018
00023858 0000004a
0002385c ffffffa6
00023860 ffffff89
00023864 00000041
00023868 0000007e
0002386c 00000062
00023870 00000019
00023874 0000005c
00023878 00000032
0002387c 00000024
00023880 00000068
00023884 ffffffb1
00023888 ffffffa5
0002388c ffffff92
00023890 ffffffed
00023894 fffffff1
00023898 ffffffac
0002389c ffffffa4
000238a0 00000032
000238a4 ffffff96
000238a8 0000006e
000238ac ffffffd1
000238b0 ffffffea
000238b4 00000051
000238b8 0000004a
000238bc ffffff97
000238c0 ffffffe5
000238c4 0000005a
000238c8 ffffffe4
000238cc 0000007b
000238d0 ffffff91
000238d4 0000001c
000238d8 ffffffdb
000238dc 0000006a
000238e0 0000002d
000238e4 0000000e
000238e8 0000000b
000238ec ffffffac
000238f0 ffffff8c
000238f4 fffffffd
000238f8 ffffffa6
000238fc ffffffdb
00023900 ffffffaa
00023904 fffffff7
00023908 00000028
0002390c fffffff1
00023910 00000014
00023914 0000003f
00023918 0000004d
0002391c 00000046
00023920 0000000c
00023924 0000004c
00023928 ffffff91
0002392c ffffffac
00023930 ffffffb2
00023934 ffffff9c
00023938 0000007d
0002393c ffffffc2
00023940 ffffffb3
00023944 ffffff82
00023948 00000066
0002394c 0000007e
00023950 0000001a
00023954 ffffffb9
00023958 00000039
0002395c ffffffa1
00023960 0000000b
00023964 ffffffde
00023968 0000003a
0002396c ffffff8b
00023970 ffffff8c
00023974 ffffffeb
00023978 00000055
0002397c 00000067
00023980 ffffffc0
00023984 00000012
00023988 ffffffe5
0002398c 0000002a
00023990 ffffffbf
00023994 00000053
00023998 ffffffff
0002399c 00000012
000239a0 ffffff8f
000239a4 0000000e
000239a8 ffffffc4
000239ac ffffffa6
000239b0 0000001d
000239b4 ffffffe2
000239b8 ffffff81
000239bc 0000001f
000239c0 ffffffa8
000239c4 ffffffed
000239c8 0000003a
000239cc 00000007
000239d0 0000007e
000239d4 00000013
000239d8 ffffff9a
000239dc 00000007
000239e0 ffffffb9
000239e4 0000005a
000239e8 ffffffad
000239ec 00000014
000239f0 fffffff8
000239f4 ffffff86
000239f8 ffffffc3
000239fc 0000007c
00023a00 00000050
00023a04 ffffff8b
00023a08 fffffffe
00023a0c ffffff87
00023a10 ffffffaf
00023a14 ffffffcd
00023a18 fffffff0
00023a1c ffffffaf
00023a20 00000003
00023a24 fffffff6
00023a28 ffffffab
00023a2c ffffffa5
00023a30 00000028
00023a34 00000064
00023a38 ffffffa0
00023a3c ffffff84
00023a40 ffffff83
00023a44 ffffffe3
00023a48 ffffffcf
00023a4c 00000058
00023a50 ffffffd0
00023a54 ffffffed
00023a58 ffffffbf
00023a5c ffffff94
00023a60 0000002b
00023a64 ffffffb9
00023a68 00000066
00023a6c 00000016
00023a70 ffffffc6
00023a74 ffffff91
00023a78 ffffffec
00023a7c 0000000f
00023a80 00000017
00023a84 ffffffbc
00023a88 00000027
00023a8c 0000004c
00023a90 00000077
00023a94 00000036
00023a98 ffffff8b
00023a9c ffffffe7
00023aa0 0000002e
00023aa4 00000036
00023aa8 ffffffad
00023aac ffffffce
00023ab0 0000004d
00023ab4 0000002e
00023ab8 00000001
00023abc 00000024
00023ac0 ffffffc4
00023ac4 00000052
00023ac8 ffffffe6
00023acc 0000005a
00023ad0 00000006
00023ad4 00000042
00023ad8 00000038
00023adc ffffffa4
00023ae0 ffffffab
00023ae4 ffffffa6
00023ae8 ffffff8d
00023aec 00000041
00023af0 ffffffdc
00023af4 00000030
00023af8 ffffff86
00023afc ffffff9a
00023b00 ffffffde
00023b04 0000007d
00023b08 00000065
00023b0c 0000003c
00023b10 0000003a
00023b14 ffffffb3
00023b18 00000014
00023b1c ffffffc2
00023b20 0000002f
00023b24 00000073
00023b28 0000007b
00023b2c 00000065
00023b30 ffffffc4
00023b34 00000013
00023b38 ffffff9e
00023b3c ffffffb5
00023b40 fffffff8
00023b44 00000048
00023b48 ffffffb1
00023b4c ffffff8f
00023b50 00000035
00023b54 00000062
00023b58 ffffff99
00023b5c ffffff89
00023b60 ffffff96
00023b64 ffffff93
00023b68 ffffffd8
00023b6c fffffff9
00023b70 ffffff9b
00023b74 ffffffdf
00023b78 ffffffa9
00023b7c ffffffaa
00023b80 ffffff9a
00023b84 00000075
00023b88 ffffffa2
00023b8c ffffff88
00023b90 ffffff97
00023b94 00000029
00023b98 0000004b
00023b9c 0000003f
00023ba0 00000036
00023ba4 00000027
00023ba8 00000023
00023bac ffffff97
00023bb0 ffffffab
00023bb4 ffffffe3
00023bb8 ffffffd1
00023bbc 00000071
00023bc0 0000004e
00023bc4 00000006
00023bc8 ffffffd6
00023bcc 0000004b
00023bd0 00000046
00023bd4 ffffff9f
00023bd8 00000026
00023bdc 0000003f
00023be0 ffffff80
00023be4 0000004d
00023be8 00000001
00023bec ffffffcc
00023bf0 ffffffe7
00023bf4 ffffffba
00023bf8 ffffffc0
00023bfc ffffffc3
00023c00 ffffffea
00023c04 0000001c
00023c08 0000002d
00023c0c 00000052
00023c10 fffffff5
00023c14 fffffffa
00023c18 ffffffc1
00023c1c ffffff80
00023c20 00000077
00023c24 00000040
00023c28 0000004c
00023c2c 00000009
00023c30 00000016
00023c34 ffffff87
00023c38 0000005f
00023c3c ffffffc4
00023c40 00000026
00023c44 00000068
00023c48 0000006e
00023c4c ffffffb8
00023c50 ffffffce
00023c54 00000012
00023c58 00000036
00023c5c ffffffb3
00023c60 00000007
00023c64 00000014
00023c68 00000012
00023c6c 00000013
00023c70 ffffffd2
00023c74 ffffffa2
00023c78 fffffff3
00023c7c 0000004d
00023c80 00000078
00023c84 ffffffe0
00023c88 ffffffee
00023c8c ffffffe0
00023c90 0000003d
00023c94 ffffff98
00023c98 00000061
00023c9c fffffff8
00023ca0 ffffff92
00023ca4 ffffffc5
00023ca8 ffffffbf
00023cac 0000000e
00023cb0 00000053
00023cb4 ffffffaf
00023cb8 ffffffce
00023cbc ffffffe1
00023cc0 0000006d
00023cc4 ffffffe3
00023cc8 ffffffac
00023ccc 0000003e
00023cd0 00000064
00023cd4 0000005e
00023cd8 0000006e
00023cdc 00000079
00023ce0 ffffffa1
00023ce4 ffffffcd
00023ce8 ffffffee
00023cec ffffff94
00023cf0 00000003
00023cf4 00000076
00023cf8 00000052
00023cfc ffffffc5
00023d00 0000005b
00023d04 00000064
00023d08 0000004f
00023d0c ffffffa0
00023d10 00000074
00023d14 ffffff87
00023d18 ffffffce
00023d1c 0000005d
00023d20 0000003d
00023d24 00000025
00023d28 ffffffa0
00023d2c 0000001d
00023d30 00000076
00023d34 00000059
00023d38 00000011
00023d3c 00000044
00023d40 00000030
00023d44 00000066
00023d48 00000060
00023d4c 00000065
00023d50 00000048
00023d54 0000006d
00023d58 ffffffc5
00023d5c ffffffb8
00023d60 ffffff9f
00023d64 0000001c
00023d68 0000003a
00023d6c ffffff89
00023d70 ffffffec
00023d74 00000014
00023d78 ffffffce
00023d7c ffffffda
00023d80 0000000f
00023d84 ffffff89
00023d88 ffffffd4
00023d8c 0000002f
00023d90 ffffffc6
00023d94 00000061
00023d98 ffffff92
00023d9c 00000058
00023da0 ffffffc5
00023da4 ffffffb0
00023da8 ffffff89
00023dac 0000002b
00023db0 00000010
00023db4 ffffffef
00023db8 00000077
00023dbc 00000007
00023dc0 fffffff5
00023dc4 ffffff9f
00023dc8 ffffff87
00023dcc ffffffa2
00023dd0 0000007a
00023dd4 ffffffea
00023dd8 ffffffeb
00023ddc ffffffdd
00023de0 ffffffc0
00023de4 00000035
00023de8 ffffffc1
00023dec 00000077
00023df0 ffffffe4
00023df4 00000057
00023df8 ffffffb1
00023dfc ffffffdf
00023e00 0000001e
00023e04 0000000e
00023e08 ffffff89
00023e0c 0000002c
00023e10 00000075
00023e14 ffffffaf
00023e18 ffffffd1
00023e1c 00000002
00023e20 0000006e
00023e24 ffffff80
00023e28 ffffffe0
00023e2c ffffffdf
00023e30 fffffffa
00023e34 ffffffe4
00023e38 ffffffe1
00023e3c 0000000a
00023e40 ffffffe3
00023e44 ffffff8e
00023e48 00000071
00023e4c ffffffa0
00023e50 ffffffb7
00023e54 0000000a
00023e58 00000031
00023e5c 00000017
00023e60 0000005d
00023e64 ffffffd6
00023e68 00000039
00023e6c ffffffd1
00023e70 0000001d
00023e74 ffffffc0
00023e78 00000017
00023e7c ffffff83
00023e80 00000058
00023e84 fffffff3
00023e88 ffffffb5
00023e8c ffffffcf
00023e90 ffffffb3
00023e94 ffffffcb
00023e98 0000002f
00023e9c 00000079
00023ea0 00000071
00023ea4 ffffff99
00023ea8 0000005d
00023eac fffffff0
00023eb0 00000064
00023eb4 ffffffbe
00023eb8 0000002b
00023ebc ffffff80
00023ec0 ffffffd6
00023ec4 ffffff87
00023ec8 0000006e
00023ecc fffffffb
00023ed0 00000018
00023ed4 00000067
00023ed8 ffffffe3
00023edc 00000022
00023ee0 ffffff94
00023ee4 ffffffb3
00023ee8 00000045
00023eec 0000001c
00023ef0 ffffffac
00023ef4 0000002f
00023ef8 00000036
00023efc ffffff8d
00023f00 fffffffb
00023f04 00000079
00023f08 ffffffd9
00023f0c ffffff86
00023f10 00000013
00023f14 0000006f
00023f18 ffffffee
00023f1c ffffffee
00023f20 fffffff8
00023f24 00000053
00023f28 ffffffec
00023f2c ffffff9b
00023f30 00000058
00023f34 00000027
00023f38 00000041
00023f3c 00000047
00023f40 00000003
00023f44 ffffffb5
00023f48 0000005c
00023f4c 00000072
00023f50 ffffff8a
00023f54 00000017
00023f58 fffffff5
00023f5c 00000024
00023f60 ffffffdc
00023f64 0000005b
00023f68 ffffffc0
00023f6c ffffffcf
00023f70 00000067
00023f74 0000001d
00023f78 ffffff91
00023f7c 0000002d
00023f80 0000006c
00023f84 ffffff84
00023f88 ffffffc1
00023f8c 00000023
00023f90 ffffffd7
00023f94 ffffff82
00023f98 ffffffe7
00023f9c ffffffa4
00023fa0 ffffff82
00023fa4 ffffff90
00023fa8 00000023
00023fac 00000056
00023fb0 0000006c
00023fb4 ffffffc8
00023fb8 ffffffb1
00023fbc 0000002d
00023fc0 ffffffcb
00023fc4 00000075
00023fc8 ffffffbf
00023fcc ffffffee
00023fd0 fffffffb
00023fd4 00000054
00023fd8 0000007d
00023fdc ffffff97
00023fe0 0000005e
00023fe4 0000000f
00023fe8 00000000
00023fec 00000040
00023ff0 0000007c
00023ff4 ffffff9d
00023ff8 ffffff93
00023ffc fffffff2
00024000 ffffffff
00024004 00000013
00024008 ffffffb3
0002400c ffffffec
00024010 0000006e
00024014 ffffff8c
00024018 00000002
0002401c ffffff9c
00024020 00000056
00024024 ffffffd2
